<unk>	0
<s>	0
</s>	0
<pad>	0
<mask>	0
▁t	-0
ng	-1
▁c	-2
nh	-3
▁đ	-4
▁l	-5
▁th	-6
▁m	-7
▁h	-8
▁k	-9
▁ch	-10
▁tr	-11
▁b	-12
▁v	-13
▁nh	-14
▁n	-15
▁ng	-16
▁kh	-17
ên	-18
▁s	-19
▁g	-20
ph	-21
▁ph	-22
ần	-23
ông	-24
▁là	-25
▁d	-26
ại	-27
▁gi	-28
ươ	-29
iế	-30
▁r	-31
▁không	-32
uy	-33
ột	-34
ời	-35
▁có	-36
▁một	-37
▁q	-38
ân	-39
ương	-40
▁nà	-41
ượ	-42
iên	-43
▁qu	-44
iệ	-45
inh	-46
ất	-47
▁"	-48
▁cá	-49
ong	-50
ới	-51
ch	-52
▁thần	-53
▁x	-54
▁này	-55
ười	-56
ực	-57
ược	-58
ùng	-59
▁ta	-60
▁như	-61
▁thể	-62
▁nó	-63
▁cái	-64
▁đi	-65
▁nói	-66
▁ra	-67
▁người	-68
▁trong	-69
▁cùng	-70
ướ	-71
▁hắ	-72
oà	-73
ết	-74
ền	-75
ao	-76
iến	-77
▁cũ	-78
."	-79
ều	-80
anh	-81
ai	-82
ành	-83
▁đế	-84
ánh	-85
▁cũng	-86
▁lại	-87
ình	-88
▁trần	-89
▁thiên	-90
▁đại	-91
▁ki	-92
ươi	-93
an	-94
▁hắn	-95
uố	-96
âm	-97
iện	-98
ấy	-99
▁tại	-100
▁chú	-101
ật	-102
▁thành	-103
▁đến	-104
ấp	-105
▁cả	-106
ính	-107
ang	-108
ung	-109
▁phá	-110
▁được	-111
ờng	-112
ộc	-113
ạo	-114
ăng	-115
▁đị	-116
ắc	-117
ận	-118
▁mà	-119
ường	-120
▁bên	-121
ầu	-122
▁ngươi	-123
▁ngh	-124
▁.	-125
ước	-126
▁độ	-127
ải	-128
▁thế	-129
ức	-130
ối	-131
▁lực	-132
au	-133
iền	-134
uyệ	-135
ây	-136
úc	-137
ắt	-138
ục	-139
êu	-140
▁cấp	-141
ào	-142
▁tu	-143
ác	-144
▁cho	-145
àng	-146
▁thu	-147
▁đều	-148
ôn	-149
▁chỉ	-150
ượng	-151
▁nhân	-152
▁bả	-153
▁thân	-154
▁tiế	-155
oàn	-156
ay	-157
▁mặ	-158
em	-159
▁liền	-160
ìn	-161
òn	-162
▁đầu	-163
▁tới	-164
▁chủ	-165
▁trương	-166
▁nhược	-167
▁nhìn	-168
ôi	-169
▁nhất	-170
▁chính	-171
▁trên	-172
▁tinh	-173
▁ti	-174
▁từ	-175
▁lên	-176
▁thánh	-177
▁huy	-178
▁giới	-179
ơi	-180
ập	-181
▁ở	-182
▁còn	-183
▁thời	-184
▁đó	-185
▁sau	-186
▁tử	-187
ạch	-188
âu	-189
▁đối	-190
▁lã	-191
▁đã	-192
ích	-193
uyên	-194
▁chi	-195
▁hai	-196
ồng	-197
▁tộc	-198
ái	-199
▁bị	-200
▁làm	-201
▁linh	-202
▁vị	-203
▁trước	-204
▁kia	-205
▁khí	-206
▁mắt	-207
iếm	-208
▁đạo	-209
ạn	-210
ậy	-211
ài	-212
▁hiện	-213
▁mặt	-214
iết	-215
▁vào	-216
▁chiến	-217
àn	-218
ống	-219
▁địa	-220
!"	-221
ểm	-222
ốc	-223
▁lúc	-224
▁phải	-225
uốn	-226
ơn	-227
át	-228
?"	-229
▁tần	-230
▁nhi	-231
▁nhưng	-232
ăn	-233
▁ho	-234
▁ma	-235
▁muốn	-236
uyện	-237
▁thủ	-238
▁về	-239
▁diệ	-240
ăm	-241
▁vậy	-242
ọn	-243
▁đem	-244
▁tay	-245
▁1	-246
▁phí	-247
oại	-248
▁giả	-249
▁lần	-250
▁chút	-251
▁vương	-252
òng	-253
▁tự	-254
▁gì	-255
áng	-256
ồi	-257
ưở	-258
▁kiếm	-259
ưởng	-260
▁nhiên	-261
▁phía	-262
ấn	-263
▁điểm	-264
▁phương	-265
▁tiên	-266
eo	-267
ướng	-268
▁tiếp	-269
▁lấy	-270
▁động	-271
▁thanh	-272
▁nữ	-273
▁qua	-274
ội	-275
▁nào	-276
ẫn	-277
▁vô	-278
▁các	-279
êm	-280
00	-281
ốt	-282
▁sao	-283
▁cảnh	-284
ám	-285
▁lượng	-286
▁rất	-287
▁hạ	-288
▁mình	-289
uống	-290
▁y	-291
ển	-292
▁gia	-293
▁công	-294
uyền	-295
▁ý	-296
▁bộ	-297
ểu	-298
▁sẽ	-299
▁cao	-300
▁toàn	-301
▁nguyên	-302
▁với	-303
▁long	-304
▁co	-305
▁gian	-306
▁tức	-307
▁thấy	-308
án	-309
▁bọn	-310
▁dạ	-311
▁phát	-312
▁lâm	-313
▁xu	-314
▁lớ	-315
ứng	-316
ạt	-317
ếu	-318
▁pháp	-319
uyệt	-320
▁theo	-321
▁sinh	-322
▁mới	-323
▁biết	-324
▁củ	-325
ảnh	-326
▁càng	-327
==	-328
▁để	-329
▁cung	-330
▁nhiều	-331
▁bản	-332
▁huyết	-333
▁đây	-334
▁lớn	-335
▁của	-336
ừng	-337
iệu	-338
▁chu	-339
▁bất	-340
▁thật	-341
▁vì	-342
▁binh	-343
▁quân	-344
am	-345
ầm	-346
ọng	-347
ững	-348
▁chí	-349
▁chân	-350
▁tâm	-351
▁hoà	-352
▁xuất	-353
▁bảo	-354
▁loại	-355
▁thương	-356
▁kỳ	-357
▁định	-358
▁tiến	-359
▁minh	-360
▁lãnh	-361
▁diệp	-362
▁phong	-363
▁nàng	-364
▁nghĩ	-365
▁lôi	-366
▁hướng	-367
▁cười	-368
▁cường	-369
▁cảm	-370
▁xuống	-371
▁đồng	-372
▁hồ	-373
iệt	-374
▁năng	-375
▁đánh	-376
▁tình	-377
ạnh	-378
oài	-379
ừa	-380
▁a	-381
▁ngoài	-382
▁vật	-383
▁dư	-384
▁hoàng	-385
ẳng	-386
ưng	-387
▁quá	-388
▁trở	-389
uyết	-390
▁hỏ	-391
ấu	-392
th	-393
ưa	-394
▁ba	-395
▁thực	-396
▁vạn	-397
ốn	-398
▁chỗ	-399
ày	-400
▁chúng	-401
▁kim	-402
ổi	-403
▁những	-404
▁cử	-405
ĩnh	-406
▁cơ	-407
▁tổ	-408
▁thứ	-409
▁giờ	-410
▁giai	-411
▁quốc	-412
▁lão	-413
▁kiêu	-414
▁lu	-415
▁năm	-416
▁mấy	-417
▁chủng	-418
▁hi	-419
▁khác	-420
▁họ	-421
▁quả	-422
▁trận	-423
▁từng	-424
ẩn	-425
▁sắc	-426
▁tôn	-427
▁cực	-428
▁sư	-429
ạc	-430
▁hắc	-431
áo	-432
▁lập	-433
▁tính	-434
ằng	-435
▁sĩ	-436
óa	-437
▁truyền	-438
▁kích	-439
ách	-440
▁tiếng	-441
▁hơn	-442
▁rồi	-443
▁lòng	-444
▁di	-445
▁mang	-446
ưu	-447
▁chúa	-448
▁đo	-449
▁dù	-450
▁bắc	-451
▁cần	-452
▁số	-453
áp	-454
ỉnh	-455
▁hình	-456
▁dưới	-457
▁vẫn	-458
▁tăng	-459
▁vũ	-460
▁vi	-461
▁hóa	-462
..	-463
▁sát	-464
▁âm	-465
▁điện	-466
óng	-467
▁biến	-468
▁lý	-469
▁(	-470
▁trung	-471
▁ngày	-472
▁quan	-473
▁nếu	-474
▁vân	-475
▁2	-476
▁quang	-477
▁cách	-478
▁nơi	-479
▁nên	-480
ắng	-481
▁thị	-482
▁sự	-483
▁xem	-484
▁sợ	-485
▁«	-486
▁cổ	-487
ụng	-488
▁chết	-489
▁tốt	-490
▁hoàn	-491
▁lời	-492
▁»	-493
▁luyện	-494
▁kinh	-495
ản	-496
▁hành	-497
▁vừa	-498
▁ảnh	-499
ệnh	-500
ỗi	-501
▁bạch	-502
▁)	-503
úng	-504
▁tiểu	-505
▁đường	-506
en	-507
ậm	-508
▁nghe	-509
▁thi	-510
ít	-511
ặc	-512
▁đồ	-513
▁thăng	-514
▁nữa	-515
▁tuyệt	-516
▁giống	-517
▁thêm	-518
▁giữ	-519
▁thú	-520
▁thường	-521
▁dị	-522
▁mở	-523
ắn	-524
uyển	-525
òa	-526
▁khó	-527
▁lục	-528
▁rõ	-529
▁bắt	-530
▁ánh	-531
ởi	-532
▁vực	-533
ảo	-534
▁liên	-535
▁mặc	-536
▁."	-537
ợi	-538
▁tất	-539
▁la	-540
ảy	-541
iếu	-542
ẩm	-543
▁đệ	-544
▁so	-545
ễn	-546
▁3	-547
▁bình	-548
ọc	-549
▁hợ	-550
▁trọng	-551
▁mười	-552
▁dạng	-553
▁hợp	-554
▁đứng	-555
▁châu	-556
▁phú	-557
▁nhỏ	-558
▁thông	-559
▁thái	-560
▁nhanh	-561
▁đỉnh	-562
▁giết	-563
▁phần	-564
▁viên	-565
▁trực	-566
▁cửu	-567
▁tài	-568
ắm	-569
▁hải	-570
▁khi	-571
▁dự	-572
▁cứ	-573
▁nay	-574
ta	-575
▁thuộc	-576
▁danh	-577
▁hội	-578
▁lộ	-579
▁tòa	-580
▁con	-581
▁bước	-582
▁màu	-583
▁kho	-584
▁bao	-585
▁to	-586
▁trường	-587
▁cự	-588
▁tiêu	-589
ọi	-590
▁hỏa	-591
▁thạch	-592
▁khắc	-593
▁chuyện	-594
▁nghi	-595
▁văn	-596
▁dương	-597
▁hư	-598
▁sở	-599
ìm	-600
▁giác	-601
▁ít	-602
▁phụ	-603
▁lâu	-604
▁lĩnh	-605
▁tư	-606
▁nhau	-607
▁khu	-608
▁do	-609
▁đề	-610
▁trưởng	-611
▁tin	-612
▁dụng	-613
▁mỗi	-614
▁sơn	-615
▁lo	-616
====	-617
ét	-618
▁dùng	-619
▁môn	-620
▁bởi	-621
▁sử	-622
kh	-623
▁đất	-624
▁chế	-625
▁lưu	-626
▁tri	-627
áy	-628
▁kiến	-629
▁trăm	-630
▁bí	-631
ngươi	-632
▁tam	-633
ộng	-634
▁hạo	-635
▁nhận	-636
▁hoa	-637
▁kết	-638
▁hồn	-639
▁đội	-640
▁thất	-641
ầy	-642
▁chương	-643
▁tìm	-644
▁đấu	-645
▁trì	-646
▁diệt	-647
▁“	-648
▁ngay	-649
▁bốn	-650
▁tương	-651
▁thì	-652
▁mạnh	-653
▁hết	-654
▁tục	-655
iệm	-656
▁cu	-657
ồn	-658
▁đoàn	-659
▁hồng	-660
▁cầu	-661
▁sáng	-662
▁hiệu	-663
▁mệnh	-664
óm	-665
▁nguyệt	-666
▁anh	-667
áu	-668
ạm	-669
ặp	-670
▁đột	-671
▁xa	-672
▁bàn	-673
▁tên	-674
ảng	-675
▁thủy	-676
▁căn	-677
▁đạt	-678
▁phục	-679
▁trí	-680
▁phi	-681
▁bi	-682
▁đủ	-683
iệng	-684
▁miệng	-685
▁ám	-686
uối	-687
▁chơi	-688
▁nội	-689
ãi	-690
ém	-691
▁đang	-692
▁nhóm	-693
▁rơi	-694
▁quy	-695
▁bây	-696
▁bay	-697
▁phân	-698
▁giữa	-699
▁huyền	-700
▁coi	-701
▁kỹ	-702
àm	-703
▁phòng	-704
▁võ	-705
▁khỏ	-706
ửa	-707
ọa	-708
▁thượng	-709
▁điều	-710
▁dung	-711
▁phẩm	-712
▁nam	-713
▁gặp	-714
▁chưa	-715
▁hỏi	-716
▁địch	-717
▁trời	-718
▁tông	-719
ấm	-720
▁hay	-721
▁tụ	-722
▁giao	-723
▁đương	-724
▁nhị	-725
▁tạo	-726
iếp	-727
▁nhẹ	-728
▁mảnh	-729
▁hô	-730
▁tích	-731
▁mã	-732
không	-733
▁4	-734
▁hùng	-735
▁triệu	-736
▁hơi	-737
▁đầy	-738
▁đám	-739
▁tứ	-740
▁dài	-741
tr	-742
▁lợi	-743
▁tốc	-744
▁gật	-745
▁khả	-746
▁ngũ	-747
▁5	-748
▁hồi	-749
▁thức	-750
▁chờ	-751
▁đúng	-752
ữu	-753
▁bán	-754
▁thập	-755
▁hữu	-756
▁cuối	-757
▁chuyển	-758
▁vọng	-759
▁[	-760
▁thuật	-761
▁yếu	-762
ịch	-763
ằm	-764
▁uy	-765
ạng	-766
▁ràng	-767
▁vang	-768
▁bằng	-769
▁tho	-770
000	-771
▁hộ	-772
▁an	-773
▁tượng	-774
▁đơn	-775
▁thưởng	-776
▁giá	-777
ắp	-778
▁thôi	-779
▁đưa	-780
ến	-781
▁sứ	-782
▁hệ	-783
▁thích	-784
▁tọa	-785
▁]	-786
▁quyết	-787
er	-788
▁),	-789
▁quỷ	-790
iêu	-791
▁phủ	-792
▁ngưng	-793
iệp	-794
▁ai	-795
▁vụ	-796
▁suy	-797
óc	-798
▁nhập	-799
▁yên	-800
▁u	-801
▁phù	-802
▁,	-803
▁lẽ	-804
▁vong	-805
▁dám	-806
ặt	-807
ễm	-808
▁mất	-809
iệc	-810
▁ngọc	-811
▁lạc	-812
▁tác	-813
▁tế	-814
▁dẫn	-815
ặng	-816
▁bạo	-817
▁trúc	-818
▁ứng	-819
▁tựa	-820
▁lạnh	-821
▁kỵ	-822
▁giải	-823
▁ngược	-824
▁vận	-825
▁thiếu	-826
▁mạch	-827
▁chức	-828
▁đan	-829
▁đặc	-830
ớm	-831
▁ngoại	-832
▁vẻ	-833
▁ly	-834
▁cửa	-835
▁mọi	-836
▁ngừng	-837
▁lệ	-838
▁ác	-839
▁cố	-840
▁quanh	-841
▁đâu	-842
▁tuyết	-843
▁hỗ	-844
▁đoạn	-845
úi	-846
▁sớm	-847
▁tắc	-848
▁sống	-849
▁thậm	-850
ượt	-851
▁thiết	-852
ầng	-853
▁quái	-854
▁cây	-855
▁việc	-856
▁xác	-857
▁cầm	-858
▁gần	-859
▁đáng	-860
▁nước	-861
▁trang	-862
▁hàng	-863
▁vệ	-864
▁vàng	-865
▁áo	-866
▁chuẩn	-867
▁tà	-868
▁o	-869
▁tầng	-870
▁?	-871
ảm	-872
ậu	-873
▁hỗn	-874
▁nắm	-875
▁6	-876
▁nháy	-877
ạy	-878
úp	-879
▁ngàn	-880
▁khỏi	-881
▁mục	-882
▁sức	-883
▁nổi	-884
▁đen	-885
▁đình	-886
▁ăn	-887
▁ha	-888
ẳn	-889
▁đẳng	-890
▁trụ	-891
▁trắng	-892
▁rời	-893
▁khổ	-894
▁diện	-895
▁biệt	-896
▁tồn	-897
▁áp	-898
.”	-899
▁ngăn	-900
▁máu	-901
in	-902
▁thê	-903
▁câu	-904
▁mu	-905
▁hẳn	-906
ép	-907
▁chạy	-908
▁ẩn	-909
▁ngài	-910
▁tưởng	-911
▁chẳng	-912
ỡng	-913
▁luận	-914
▁hoặc	-915
▁trầm	-916
▁ngự	-917
▁ấn	-918
▁phận	-919
▁nguyện	-920
▁bỏ	-921
▁thấp	-922
▁học	-923
▁trấn	-924
▁sâu	-925
▁phu	-926
▁12	-927
▁8	-928
▁bu	-929
▁vu	-930
▁chất	-931
▁cốt	-932
▁tràn	-933
▁hôm	-934
▁nửa	-935
▁đổi	-936
▁viện	-937
▁ngân	-938
▁diễm	-939
ậc	-940
▁xuyên	-941
▁giúp	-942
▁liệt	-943
▁hủ	-944
▁khôi	-945
▁hà	-946
▁hiểu	-947
▁no	-948
cái	-949
▁thụ	-950
▁phút	-951
ọt	-952
▁quyền	-953
▁hậu	-954
▁thư	-955
▁tập	-956
▁vấn	-957
▁li	-958
▁thẳng	-959
▁chậm	-960
▁khai	-961
▁10	-962
ạp	-963
▁băng	-964
ãn	-965
▁kiện	-966
út	-967
▁chung	-968
▁0	-969
ói	-970
▁đá	-971
▁xong	-972
▁dáng	-973
▁trừ	-974
▁bậc	-975
▁mức	-976
ủng	-977
ứt	-978
▁phản	-979
▁độn	-980
▁tổn	-981
▁sai	-982
▁vòng	-983
▁yêu	-984
▁hàn	-985
▁triển	-986
▁tướng	-987
▁huống	-988
▁phó	-989
▁cuồng	-990
▁tranh	-991
▁tĩnh	-992
▁biểu	-993
▁đao	-994
▁xo	-995
▁hiển	-996
éo	-997
▁chấn	-998
ùy	-999
uốt	-1000
▁lai	-1001
▁liệu	-1002
▁mộc	-1003
▁dĩ	-1004
▁kính	-1005
▁rương	-1006
▁ngục	-1007
▁lưng	-1008
▁trùng	-1009
▁hưởng	-1010
▁bố	-1011
ón	-1012
...	-1013
ứa	-1014
▁quý	-1015
▁ngồi	-1016
▁dịch	-1017
▁thuyết	-1018
▁mộ	-1019
▁ca	-1020
▁đông	-1021
▁ức	-1022
▁dần	-1023
▁gấp	-1024
▁dựa	-1025
▁dân	-1026
▁lui	-1027
▁bại	-1028
▁lệnh	-1029
ll	-1030
▁phàm	-1031
▁siêu	-1032
▁tí	-1033
▁?"	-1034
▁ban	-1035
▁khẽ	-1036
▁tỷ	-1037
▁-	-1038
▁cánh	-1039
▁dược	-1040
ênh	-1041
▁thừa	-1042
▁chị	-1043
▁chằm	-1044
▁mỹ	-1045
▁nghiêm	-1046
▁giáp	-1047
▁phóng	-1048
▁trợ	-1049
▁vây	-1050
▁cạnh	-1051
▁ngư	-1052
▁hoang	-1053
▁trái	-1054
▁mũ	-1055
▁báo	-1056
▁đảo	-1057
▁hao	-1058
========	-1059
▁tận	-1060
ẩu	-1061
▁thảy	-1062
▁bài	-1063
▁đợi	-1064
▁hổ	-1065
▁tệ	-1066
▁phượng	-1067
▁tối	-1068
▁hoạch	-1069
▁chịu	-1070
▁lam	-1071
▁chiêu	-1072
▁bóng	-1073
▁tiền	-1074
▁đoán	-1075
▁thở	-1076
▁tuổi	-1077
▁thống	-1078
▁sa	-1079
▁triệt	-1080
▁hủy	-1081
▁cỗ	-1082
▁giáo	-1083
▁khiến	-1084
▁núi	-1085
▁đôi	-1086
▁trị	-1087
ềm	-1088
▁giận	-1089
▁độc	-1090
▁vượt	-1091
▁tán	-1092
ặn	-1093
▁tân	-1094
▁hạn	-1095
▁vỡ	-1096
▁cương	-1097
▁vốn	-1098
▁chém	-1099
▁phúc	-1100
▁cục	-1101
▁'	-1102
▁kiếp	-1103
▁đoạt	-1104
▁chừng	-1105
▁kéo	-1106
▁rộng	-1107
▁xích	-1108
▁chưởng	-1109
▁tai	-1110
lâm	-1111
▁đời	-1112
▁sương	-1113
▁bá	-1114
hết	-1115
▁gọi	-1116
▁tùy	-1117
▁dễ	-1118
▁uyên	-1119
▁hiểm	-1120
▁luân	-1121
▁chiếm	-1122
▁7	-1123
▁nguy	-1124
▁thắng	-1125
▁ngạc	-1126
▁nhiệm	-1127
▁cấm	-1128
▁mày	-1129
▁tường	-1130
ẩy	-1131
▁tố	-1132
▁noi	-1133
▁mũi	-1134
▁nhà	-1135
▁trượng	-1136
▁cứu	-1137
▁kế	-1138
▁vội	-1139
▁khách	-1140
▁thúc	-1141
▁niên	-1142
▁chữ	-1143
▁lăng	-1144
▁sơ	-1145
▁khủng	-1146
▁tỉnh	-1147
▁sánh	-1148
▁đừng	-1149
▁mi	-1150
▁nghị	-1151
▁khoảng	-1152
▁xông	-1153
▁ngờ	-1154
▁khô	-1155
▁gh	-1156
▁doanh	-1157
▁đu	-1158
▁phạm	-1159
ão	-1160
▁du	-1161
▁hoạt	-1162
▁đỏ	-1163
▁thù	-1164
▁rằng	-1165
▁nghĩa	-1166
▁chắc	-1167
▁giản	-1168
▁song	-1169
ùi	-1170
▁nhiêu	-1171
▁tề	-1172
▁côn	-1173
▁thoại	-1174
▁cốc	-1175
▁rãi	-1176
▁hiên	-1177
iếc	-1178
▁viễn	-1179
▁chư	-1180
▁diêm	-1181
▁khanh	-1182
▁tấn	-1183
én	-1184
▁ô	-1185
▁huynh	-1186
▁nương	-1187
▁mươi	-1188
▁mai	-1189
▁điên	-1190
▁chọn	-1191
▁loạn	-1192
▁tàn	-1193
▁mô	-1194
▁thận	-1195
▁trình	-1196
▁sóng	-1197
▁khống	-1198
▁thay	-1199
ie	-1200
▁nhạt	-1201
▁tiện	-1202
▁trả	-1203
▁cụ	-1204
▁hào	-1205
▁kị	-1206
▁quyển	-1207
▁ru	-1208
▁giang	-1209
▁khổng	-1210
▁hãi	-1211
▁sáu	-1212
▁duy	-1213
▁hại	-1214
▁cư	-1215
▁quay	-1216
▁tuy	-1217
▁xảy	-1218
▁nham	-1219
▁dò	-1220
▁cản	-1221
▁đài	-1222
▁sản	-1223
▁khuôn	-1224
▁9	-1225
▁bảy	-1226
▁gây	-1227
có	-1228
âng	-1229
▁lắng	-1230
▁mực	-1231
▁100	-1232
▁hấp	-1233
ẹp	-1234
ẫu	-1235
▁đằng	-1236
▁nha	-1237
▁da	-1238
▁chặt	-1239
▁mộng	-1240
▁kém	-1241
ợt	-1242
▁quát	-1243
▁lân	-1244
▁nghiệp	-1245
▁đổ	-1246
▁trạng	-1247
▁đắc	-1248
▁tươi	-1249
▁nhục	-1250
ẹn	-1251
▁lễ	-1252
▁trốn	-1253
êng	-1254
▁chín	-1255
▁lắc	-1256
ướp	-1257
▁bách	-1258
ộn	-1259
▁lông	-1260
ỗng	-1261
▁nhàn	-1262
▁mỉ	-1263
▁lang	-1264
▁hôn	-1265
▁sách	-1266
▁tám	-1267
▁che	-1268
ặm	-1269
▁tra	-1270
▁giọng	-1271
▁hạng	-1272
▁phất	-1273
▁vĩnh	-1274
▁mật	-1275
▁đào	-1276
ổn	-1277
▁xung	-1278
ỏa	-1279
ựa	-1280
▁lư	-1281
▁mạng	-1282
▁chứng	-1283
on	-1284
▁thôn	-1285
▁lát	-1286
▁xưng	-1287
▁vui	-1288
▁mời	-1289
▁bối	-1290
▁rốt	-1291
▁mê	-1292
▁chống	-1293
▁cẩn	-1294
iếng	-1295
ếp	-1296
▁đáp	-1297
▁hài	-1298
íu	-1299
▁khẳng	-1300
▁cận	-1301
▁nhu	-1302
▁màn	-1303
▁hung	-1304
▁cộng	-1305
▁lan	-1306
▁khối	-1307
▁bộc	-1308
▁ngô	-1309
▁hầu	-1310
ễu	-1311
▁tháp	-1312
▁bệ	-1313
▁lôn	-1314
▁trách	-1315
▁nhắc	-1316
▁oanh	-1317
▁vết	-1318
▁tung	-1319
▁chóng	-1320
▁cuộc	-1321
▁chiếu	-1322
▁gió	-1323
▁bức	-1324
▁cô	-1325
▁thâm	-1326
▁kịp	-1327
▁thử	-1328
▁mãn	-1329
▁van	-1330
▁bát	-1331
▁niệm	-1332
▁dặm	-1333
▁kì	-1334
▁nhạc	-1335
▁lắm	-1336
▁nghiệm	-1337
▁khỏa	-1338
▁thầm	-1339
▁xanh	-1340
▁rút	-1341
▁20	-1342
▁).	-1343
▁mừng	-1344
▁ngực	-1345
ia	-1346
▁tham	-1347
▁!	-1348
ớt	-1349
▁nát	-1350
▁mãnh	-1351
nếu	-1352
ót	-1353
▁tống	-1354
ũng	-1355
▁ký	-1356
một	-1357
▁thoát	-1358
óe	-1359
▁đuổi	-1360
▁bầu	-1361
▁hu	-1362
▁tản	-1363
▁tránh	-1364
▁run	-1365
▁nhãn	-1366
▁»,	-1367
▁dao	-1368
▁tia	-1369
▁su	-1370
▁xếp	-1371
▁diệu	-1372
▁lựa	-1373
▁hoán	-1374
▁ngón	-1375
các	-1376
▁yến	-1377
▁tổng	-1378
hắn	-1379
▁đẹp	-1380
▁ép	-1381
▁kiều	-1382
▁e	-1383
ụp	-1384
▁tóc	-1385
▁đăng	-1386
ượn	-1387
▁dực	-1388
▁huyễn	-1389
▁nhớ	-1390
▁may	-1391
▁trục	-1392
▁lỗ	-1393
▁dừng	-1394
▁đêm	-1395
▁trẻ	-1396
▁biển	-1397
▁lửa	-1398
▁giấu	-1399
▁hảo	-1400
▁phật	-1401
▁biện	-1402
▁thổ	-1403
▁bắn	-1404
▁phách	-1405
▁nhảy	-1406
đại	-1407
▁mị	-1408
▁miếng	-1409
▁trải	-1410
▁truyện	-1411
▁lóe	-1412
▁chớ	-1413
▁tầm	-1414
▁xạ	-1415
▁bào	-1416
▁thăm	-1417
▁kể	-1418
▁thịt	-1419
▁vài	-1420
▁đỡ	-1421
▁ngụ	-1422
ãy	-1423
▁nhật	-1424
▁thuận	-1425
▁ngộ	-1426
▁pháo	-1427
▁kêu	-1428
▁giây	-1429
▁nhàng	-1430
▁tuyền	-1431
▁nhíu	-1432
▁vọt	-1433
▁phái	-1434
?”	-1435
▁nhịn	-1436
▁tước	-1437
▁ngắn	-1438
▁đích	-1439
▁vuốt	-1440
ar	-1441
▁lẫn	-1442
▁xương	-1443
▁tây	-1444
▁ngập	-1445
▁nổ	-1446
▁tín	-1447
▁lịch	-1448
tần	-1449
▁trướng	-1450
▁bổ	-1451
đây	-1452
▁tỉ	-1453
▁ước	-1454
▁tràng	-1455
▁15	-1456
▁tiếc	-1457
▁nộ	-1458
▁ưu	-1459
▁cân	-1460
▁vung	-1461
▁lặng	-1462
ẫm	-1463
▁phảng	-1464
▁ngã	-1465
▁nặng	-1466
thật	-1467
▁đàn	-1468
▁thuyền	-1469
▁ngang	-1470
▁hương	-1471
▁dưỡng	-1472
▁tả	-1473
▁hận	-1474
▁sắp	-1475
▁mét	-1476
▁kiên	-1477
èn	-1478
▁đụng	-1479
thần	-1480
▁phấn	-1481
▁mỉm	-1482
▁lung	-1483
▁vẹn	-1484
▁đặt	-1485
▁khinh	-1486
▁dứt	-1487
▁muội	-1488
▁lỗi	-1489
▁bỗng	-1490
▁thảm	-1491
▁ổn	-1492
thiên	-1493
▁========	-1494
▁quần	-1495
▁suất	-1496
▁hứa	-1497
ùm	-1498
▁biên	-1499
gi	-1500
=====	-1501
▁=============	-1502
▁tan	-1503
▁cỡ	-1504
▁lao	-1505
▁mua	-1506
▁ư	-1507
mà	-1508
tan	-1509
ert	-1510
▁sờ	-1511
ti	-1512
▁phệ	-1513
▁ôn	-1514
▁tấm	-1515
▁chứa	-1516
▁ngu	-1517
trương	-1518
▁rung	-1519
▁sụp	-1520
el	-1521
▁xúc	-1522
▁già	-1523
▁hòa	-1524
▁quét	-1525
▁giật	-1526
▁thuần	-1527
▁dậy	-1528
▁món	-1529
▁chỉnh	-1530
▁mù	-1531
▁xét	-1532
▁tội	-1533
▁lũ	-1534
▁càn	-1535
▁diễn	-1536
▁cam	-1537
llie	-1538
▁truy	-1539
chỉ	-1540
▁tái	-1541
▁tiễn	-1542
nhưng	-1543
▁dàng	-1544
▁luật	-1545
▁tạ	-1546
▁mây	-1547
▁cải	-1548
▁mẫu	-1549
▁nhở	-1550
▁200	-1551
▁phun	-1552
▁chục	-1553
▁thải	-1554
▁quận	-1555
lão	-1556
▁ưc	-1557
▁ngữ	-1558
▁lượt	-1559
▁xưa	-1560
▁khắp	-1561
▁huấn	-1562
▁ngạo	-1563
▁ầm	-1564
▁đa	-1565
▁32	-1566
▁30	-1567
▁chúc	-1568
▁titan	-1569
▁bồi	-1570
▁hằng	-1571
▁ngủ	-1572
▁bạc	-1573
▁nho	-1574
▁sắt	-1575
▁ào	-1576
▁thả	-1577
▁ngưu	-1578
▁liễu	-1579
▁thấu	-1580
▁túc	-1581
▁11	-1582
▁thản	-1583
▁nhã	-1584
▁mạo	-1585
▁đô	-1586
▁ngo	-1587
▁mông	-1588
▁quen	-1589
▁bảng	-1590
▁quản	-1591
▁đọc	-1592
▁đâm	-1593
▁chạm	-1594
▁nóng	-1595
▁tiết	-1596
▁răng	-1597
▁dục	-1598
▁dựng	-1599
▁khái	-1600
ỏng	-1601
▁kháng	-1602
▁vững	-1603
▁trông	-1604
▁mơ	-1605
▁việt	-1606
--	-1607
▁thua	-1608
▁viêm	-1609
▁thảo	-1610
▁đức	-1611
▁đau	-1612
▁giảm	-1613
▁điệp	-1614
▁luôn	-1615
▁đên	-1616
▁xin	-1617
▁nâng	-1618
▁uống	-1619
▁liếc	-1620
▁allie	-1621
▁vặn	-1622
▁tàng	-1623
....	-1624
▁nằm	-1625
▁50	-1626
ấc	-1627
▁triều	-1628
▁lồ	-1629
▁16	-1630
▁trống	-1631
▁mẽ	-1632
▁na	-1633
▁hạm	-1634
▁tú	-1635
▁quỳ	-1636
▁mau	-1637
▁nhan	-1638
▁xe	-1639
▁vỗ	-1640
▁xấu	-1641
▁kịch	-1642
▁phiền	-1643
èm	-1644
▁xử	-1645
▁thoáng	-1646
is	-1647
▁vẽ	-1648
es	-1649
▁kỷ	-1650
▁ném	-1651
▁chớp	-1652
▁chảy	-1653
.""	-1654
im	-1655
▁nhường	-1656
▁tháng	-1657
▁khởi	-1658
▁phối	-1659
▁và	-1660
thập	-1661
▁tha	-1662
▁mượn	-1663
▁si	-1664
▁18	-1665
▁phổ	-1666
ha	-1667
▁toán	-1668
▁ngôn	-1669
▁hề	-1670
chúng	-1671
▁phỉ	-1672
▁sạch	-1673
▁trào	-1674
ượu	-1675
▁ân	-1676
▁xoay	-1677
▁cứng	-1678
▁sào	-1679
▁chăm	-1680
▁chắn	-1681
▁lương	-1682
tốt	-1683
▁ôm	-1684
▁rượu	-1685
▁lũy	-1686
▁mạc	-1687
▁buông	-1688
▁man	-1689
▁tạm	-1690
▁đập	-1691
là	-1692
nói	-1693
▁gỗ	-1694
▁canh	-1695
▁nhiệt	-1696
▁đốt	-1697
▁24	-1698
▁họa	-1699
▁hàm	-1700
▁tô	-1701
▁kẻ	-1702
ra	-1703
▁thỏa	-1704
▁sợi	-1705
▁chợt	-1706
ùa	-1707
còn	-1708
▁...	-1709
▁tròn	-1710
▁bà	-1711
ka	-1712
▁phép	-1713
▁phế	-1714
▁nụ	-1715
ỡi	-1716
▁vai	-1717
▁khiêu	-1718
▁thịnh	-1719
qu	-1720
▁cáo	-1721
▁bày	-1722
▁hạch	-1723
▁trân	-1724
óp	-1725
▁bái	-1726
▁hiến	-1727
▁tuyển	-1728
▁sững	-1729
▁nghịch	-1730
▁chuyên	-1731
▁phức	-1732
vert	-1733
▁toái	-1734
▁convert	-1735
▁thao	-1736
▁điển	-1737
▁lùng	-1738
▁chói	-1739
▁tuôn	-1740
▁hoành	-1741
▁khá	-1742
▁mát	-1743
▁mùi	-1744
▁hôi	-1745
▁nuốt	-1746
▁khôn	-1747
▁nhao	-1748
▁hưng	-1749
▁sông	-1750
▁khuyết	-1751
▁mắn	-1752
▁ri	-1753
ếch	-1754
▁cướp	-1755
▁lính	-1756
▁hừ	-1757
▁tặng	-1758
▁trạch	-1759
▁hạt	-1760
▁va	-1761
▁ghi	-1762
đúng	-1763
vậy	-1764
ịnh	-1765
▁chia	-1766
▁tuyến	-1767
▁đạp	-1768
▁lệch	-1769
▁mỏ	-1770
▁rừng	-1771
▁trùm	-1772
▁thí	-1773
▁đón	-1774
ợn	-1775
▁ngựa	-1776
▁toà	-1777
▁trúng	-1778
bất	-1779
đi	-1780
▁khoáng	-1781
▁bẩm	-1782
▁40	-1783
▁dây	-1784
%,	-1785
▁dũng	-1786
▁tịch	-1787
▁vệt	-1788
ụi	-1789
▁bạn	-1790
▁mềm	-1791
▁khương	-1792
tiểu	-1793
us	-1794
▁kiệt	-1795
▁hứng	-1796
▁quán	-1797
▁lạ	-1798
▁thiến	-1799
▁đẩy	-1800
▁ngạch	-1801
▁hố	-1802
▁ương	-1803
sư	-1804
▁lãng	-1805
▁thét	-1806
thế	-1807
▁riêng	-1808
tại	-1809
▁tốn	-1810
ãnh	-1811
▁1,	-1812
▁tạp	-1813
▁quên	-1814
▁miễn	-1815
▁đinh	-1816
▁sung	-1817
▁dã	-1818
▁xây	-1819
▁thuẫn	-1820
▁xi	-1821
▁đoan	-1822
▁nồng	-1823
▁đảm	-1824
▁hiếu	-1825
▁leo	-1826
▁liều	-1827
▁phe	-1828
▁lầm	-1829
▁dày	-1830
▁..	-1831
▁chiếc	-1832
▁đóng	-1833
▁lớp	-1834
▁phiến	-1835
▁tỏa	-1836
▁huyệt	-1837
▁sảnh	-1838
▁rỡ	-1839
▁mối	-1840
▁vẻn	-1841
▁tru	-1842
▁vụn	-1843
đã	-1844
▁chọc	-1845
làm	-1846
▁khóe	-1847
▁quỹ	-1848
▁tiềm	-1849
▁mạt	-1850
▁phạt	-1851
▁thác	-1852
at	-1853
uốc	-1854
▁trò	-1855
▁xâm	-1856
▁p	-1857
▁nghênh	-1858
▁khẩu	-1859
▁rẩy	-1860
▁chắp	-1861
▁treo	-1862
▁chữa	-1863
▁dữ	-1864
▁14	-1865
▁ngụy	-1866
▁xé	-1867
▁mái	-1868
be	-1869
▁trảm	-1870
▁chênh	-1871
▁đùa	-1872
cho	-1873
▁đạm	-1874
▁khẩn	-1875
▁cất	-1876
▁sân	-1877
▁tựu	-1878
▁lầu	-1879
▁cúi	-1880
▁sót	-1881
▁bụi	-1882
ẫy	-1883
▁kình	-1884
▁cẩu	-1885
▁mong	-1886
▁mồ	-1887
▁cắn	-1888
▁nhẫn	-1889
▁vách	-1890
▁tiêm	-1891
▁quảng	-1892
▁bén	-1893
▁phen	-1894
▁(1	-1895
như	-1896
▁đứt	-1897
▁rách	-1898
▁dụ	-1899
▁cưỡng	-1900
▁khư	-1901
▁25	-1902
▁lơ	-1903
▁bù	-1904
▁hoảng	-1905
▁nông	-1906
▁khải	-1907
▁thiêu	-1908
▁cắt	-1909
▁lá	-1910
▁trừng	-1911
▁chốt	-1912
▁gào	-1913
▁hiếp	-1914
▁xoa	-1915
▁dòng	-1916
giang	-1917
▁đàm	-1918
▁ngại	-1919
ửng	-1920
▁bo	-1921
▁giáng	-1922
ẩng	-1923
lãnh	-1924
▁môi	-1925
▁cát	-1926
▁giơ	-1927
▁duyên	-1928
▁ngẩng	-1929
tu	-1930
▁tím	-1931
▁nu	-1932
▁môt	-1933
uyến	-1934
▁khảo	-1935
▁vĩ	-1936
▁500	-1937
▁kèm	-1938
▁1000	-1939
▁đáy	-1940
▁phố	-1941
▁trôi	-1942
▁thẩm	-1943
▁xinh	-1944
▁2000	-1945
▁đậm	-1946
▁mờ	-1947
▁miêu	-1948
▁320	-1949
▁nghỉ	-1950
▁vinh	-1951
hiện	-1952
▁36	-1953
▁chấp	-1954
▁mâu	-1955
▁gã	-1956
▁lưỡng	-1957
▁bội	-1958
▁há	-1959
người	-1960
▁lấp	-1961
ếm	-1962
▁nô	-1963
▁tuyên	-1964
▁nứt	-1965
▁lô	-1966
▁chứ	-1967
▁soái	-1968
trong	-1969
▁chặn	-1970
▁phán	-1971
ươc	-1972
▁thô	-1973
▁lít	-1974
▁ảo	-1975
▁rèn	-1976
▁mắng	-1977
▁huyên	-1978
▁ích	-1979
▁móc	-1980
ât	-1981
▁cờ	-1982
▁bích	-1983
▁ngọn	-1984
▁trảo	-1985
▁nhờ	-1986
thu	-1987
▁xám	-1988
▁ngụm	-1989
▁nở	-1990
▁dâng	-1991
▁tuần	-1992
▁ninh	-1993
▁khung	-1994
▁mưu	-1995
▁80	-1996
▁ưng	-1997
▁đà	-1998
▁tim	-1999
▁đãi	-2000
▁vùng	-2001
▁dấu	-2002
▁trà	-2003
▁khoát	-2004
được	-2005
▁cuộn	-2006
▁hít	-2007
hí	-2008
▁khăn	-2009
!”	-2010
hai	-2011
▁chó	-2012
▁kẽ	-2013
▁khúc	-2014
▁thợ	-2015
▁ro	-2016
ướt	-2017
èo	-2018
▁ngẫu	-2019
▁buộc	-2020
▁não	-2021
▁thiệu	-2022
êt	-2023
▁tẩu	-2024
▁hoài	-2025
▁ngâm	-2026
▁13	-2027
▁hối	-2028
▁thuế	-2029
▁nhắm	-2030
▁săn	-2031
▁táng	-2032
ẹt	-2033
▁bụng	-2034
▁mưa	-2035
▁64	-2036
▁nhấc	-2037
xem	-2038
▁cột	-2039
▁tuấn	-2040
chờ	-2041
▁!"	-2042
▁nghiên	-2043
▁tịnh	-2044
▁tiếu	-2045
▁thiện	-2046
▁cỏ	-2047
▁bờ	-2048
▁cha	-2049
▁thọ	-2050
▁1200	-2051
đến	-2052
▁..."	-2053
▁sôi	-2054
▁chinh	-2055
ngh	-2056
▁hét	-2057
nguyên	-2058
▁ngưỡng	-2059
▁dường	-2060
ro	-2061
▁tửu	-2062
▁trọn	-2063
▁trăng	-2064
▁thước	-2065
▁dọa	-2066
▁hiệp	-2067
▁chén	-2068
▁rồng	-2069
▁nghệ	-2070
▁rối	-2071
▁dập	-2072
ẹo	-2073
▁hiền	-2074
▁thối	-2075
▁xảo	-2076
▁kiểm	-2077
▁tùng	-2078
▁bang	-2079
▁đúc	-2080
▁khoa	-2081
▁lật	-2082
▁ngôi	-2083
▁án	-2084
▁trêu	-2085
ệt	-2086
▁be	-2087
▁bác	-2088
▁lửng	-2089
▁mọc	-2090
▁tanh	-2091
▁mẹ	-2092
▁gãy	-2093
▁nghiền	-2094
hi	-2095
▁giành	-2096
▁hiếm	-2097
mời	-2098
▁phẫn	-2099
▁mấu	-2100
ờn	-2101
▁gốc	-2102
▁hâm	-2103
▁muộn	-2104
hiến	-2105
cấp	-2106
et	-2107
▁gắng	-2108
▁hăng	-2109
▁ấy	-2110
trước	-2111
▁đả	-2112
▁giọt	-2113
▁gạt	-2114
▁uyển	-2115
▁tể	-2116
co	-2117
▁náo	-2118
▁gương	-2119
▁buồn	-2120
ebe	-2121
▁au	-2122
▁lê	-2123
▁đè	-2124
▁oán	-2125
▁đản	-2126
lại	-2127
▁rắn	-2128
▁bốc	-2129
▁lưỡi	-2130
▁khiển	-2131
▁nề	-2132
▁gánh	-2133
òm	-2134
▁tỏ	-2135
▁ngốc	-2136
▁điệu	-2137
▁rậm	-2138
▁lùi	-2139
kka	-2140
ranh	-2141
ebekka	-2142
li	-2143
cũng	-2144
▁trữ	-2145
kiếm	-2146
%.	-2147
la	-2148
▁tơi	-2149
▁sâm	-2150
▁hở	-2151
▁tột	-2152
▁khói	-2153
▁suốt	-2154
▁bia	-2155
▁điểu	-2156
ửi	-2157
▁vã	-2158
xp	-2159
đừng	-2160
▁exp	-2161
▁thoải	-2162
da	-2163
▁mại	-2164
▁khen	-2165
▁hộp	-2166
▁đợt	-2167
▁xứng	-2168
▁bực	-2169
▁thơ	-2170
▁chim	-2171
▁khuy	-2172
▁trợn	-2173
ín	-2174
ho	-2175
▁xoáy	-2176
▁viết	-2177
▁lừa	-2178
▁chuyến	-2179
▁mãng	-2180
▁khóa	-2181
▁bừng	-2182
▁phiên	-2183
1:	-2184
▁mãi	-2185
▁rebekka	-2186
3:	-2187
80	-2188
7:	-2189
uyễn	-2190
õm	-2191
▁bớt	-2192
2:	-2193
9:	-2194
những	-2195
bản	-2196
▁mênh	-2197
▁phụng	-2198
5:	-2199
kia	-2200
▁thuê	-2201
6:	-2202
▁khom	-2203
▁ngơi	-2204
8:	-2205
4:	-2206
▁mỗ	-2207
▁điêu	-2208
lần	-2209
▁rầm	-2210
▁máy	-2211
▁gầm	-2212
▁chuôi	-2213
▁lor	-2214
▁hả	-2215
ộm	-2216
▁ải	-2217
▁ngao	-2218
▁chở	-2219
▁thỏ	-2220
oàng	-2221
▁300	-2222
▁nhánh	-2223
▁ar	-2224
▁yu	-2225
ss	-2226
úa	-2227
▁000	-2228
▁thai	-2229
hắc	-2230
▁cằm	-2231
▁hãn	-2232
▁nối	-2233
▁tuệ	-2234
▁tào	-2235
▁nhuyễn	-2236
re	-2237
..."	-2238
ằn	-2239
▁quyến	-2240
▁xá	-2241
lin	-2242
▁nhuệ	-2243
▁bế	-2244
▁quặng	-2245
▁chốc	-2246
ện	-2247
▁gái	-2248
▁cuồn	-2249
▁ngẩn	-2250
▁sang	-2251
▁túng	-2252
▁60	-2253
ềng	-2254
▁cấu	-2255
▁gầy	-2256
▁gợn	-2257
▁nạp	-2258
thanh	-2259
đương	-2260
▁thỉnh	-2261
▁tơ	-2262
▁kiêng	-2263
uốm	-2264
▁nhuốm	-2265
▁ung	-2266
▁mảng	-2267
▁tráng	-2268
▁thuốc	-2269
▁rỗng	-2270
▁thúy	-2271
▁triết	-2272
▁duỗi	-2273
▁bàng	-2274
▁bút	-2275
▁im	-2276
▁tạng	-2277
▁khóc	-2278
▁xiềng	-2279
▁hỉ	-2280
▁rực	-2281
nàng	-2282
▁120	-2283
▁san	-2284
20	-2285
▁thơi	-2286
▁đuôi	-2287
▁điêm	-2288
▁quấn	-2289
▁giảng	-2290
▁khe	-2291
▁ông	-2292
òi	-2293
▁17	-2294
▁thang	-2295
▁xen	-2296
▁đạn	-2297
▁lối	-2298
▁cơm	-2299
bởi	-2300
õn	-2301
▁khuynh	-2302
▁miện	-2303
▁lỏng	-2304
▁tách	-2305
▁go	-2306
▁nõn	-2307
?""	-2308
▁bóp	-2309
▁kha	-2310
▁nạn	-2311
muốn	-2312
",	-2313
▁quật	-2314
▁ấm	-2315
▁duệ	-2316
▁xà	-2317
ửu	-2318
▁dạy	-2319
▁lẩm	-2320
▁giục	-2321
▁bổn	-2322
chí	-2323
▁ủng	-2324
liền	-2325
sa	-2326
▁nhiếp	-2327
▁vo	-2328
vô	-2329
▁trán	-2330
lo	-2331
▁giam	-2332
▁lộc	-2333
▁đươc	-2334
▁góc	-2335
▁say	-2336
▁dời	-2337
▁óc	-2338
▁giường	-2339
▁4000	-2340
▁rạp	-2341
▁phỏng	-2342
▁thổi	-2343
mười	-2344
chẳng	-2345
nhìn	-2346
bọn	-2347
▁hp	-2348
▁khuất	-2349
cửu	-2350
▁chùy	-2351
▁800	-2352
ựng	-2353
▁chép	-2354
lúc	-2355
▁liệp	-2356
▁ngây	-2357
▁khuếch	-2358
▁gan	-2359
▁khiếu	-2360
ủy	-2361
▁lồng	-2362
▁le	-2363
▁thiền	-2364
▁óng	-2365
▁đựng	-2366
ừu	-2367
▁luc	-2368
▁bé	-2369
▁hã	-2370
▁kênh	-2371
hô	-2372
▁lượn	-2373
▁nhõm	-2374
đáng	-2375
▁thán	-2376
▁chướng	-2377
▁dính	-2378
▁kín	-2379
▁tê	-2380
▁cừu	-2381
ck	-2382
▁lộn	-2383
▁đeo	-2384
▁kệ	-2385
▁cháy	-2386
▁liễm	-2387
▁nhọn	-2388
▁tàu	-2389
▁tù	-2390
----	-2391
▁toát	-2392
▁chìm	-2393
▁nhai	-2394
▁phiêu	-2395
▁khố	-2396
▁cước	-2397
▁trói	-2398
▁lường	-2399
▁phanh	-2400
▁ao	-2401
ull	-2402
▁ghế	-2403
▁:	-2404
▁né	-2405
▁soph	-2406
▁mệt	-2407
▁mơi	-2408
▁ngoan	-2409
▁bật	-2410
canh	-2411
▁cuốn	-2412
▁lược	-2413
▁nguồn	-2414
▁lướt	-2415
▁khứ	-2416
▁truyen	-2417
▁dốc	-2418
▁manh	-2419
từ	-2420
▁».	-2421
▁ất	-2422
10	-2423
▁thoạt	-2424
ina	-2425
▁bùn	-2426
kỳ	-2427
▁chiều	-2428
▁châm	-2429
vì	-2430
▁rủ	-2431
▁tuế	-2432
▁lọt	-2433
▁than	-2434
▁rót	-2435
),	-2436
▁nghiêng	-2437
nam	-2438
nơi	-2439
▁mịt	-2440
▁400	-2441
▁lười	-2442
ba	-2443
chính	-2444
▁khoảnh	-2445
▁tắt	-2446
▁lữ	-2447
▁râu	-2448
rất	-2449
▁cai	-2450
▁vải	-2451
thánh	-2452
na	-2453
▁19	-2454
▁ke	-2455
nghe	-2456
ớn	-2457
hôm	-2458
lan	-2459
▁hy	-2460
▁sáo	-2461
▁nhích	-2462
▁trịnh	-2463
▁mồm	-2464
▁am	-2465
▁át	-2466
50	-2467
▁bệnh	-2468
▁hoan	-2469
▁sophie	-2470
▁rống	-2471
▁ái	-2472
▁thẻ	-2473
▁dồn	-2474
▁sải	-2475
▁ngất	-2476
▁giẫm	-2477
chủ	-2478
▁hạnh	-2479
▁nhếch	-2480
▁lụ	-2481
chuyện	-2482
it	-2483
▁trắc	-2484
▁khiết	-2485
▁ghét	-2486
▁ngọt	-2487
▁mò	-2488
▁lev	-2489
▁dãy	-2490
▁nghìn	-2491
▁túi	-2492
▁đống	-2493
▁suối	-2494
▁bão	-2495
▁600	-2496
▁thon	-2497
▁miếu	-2498
▁phốc	-2499
▁đấm	-2500
le	-2501
▁·	-2502
▁bành	-2503
▁hoằng	-2504
▁lén	-2505
▁xuôi	-2506
ld	-2507
cùng	-2508
▁đếm	-2509
▁táo	-2510
▁loan	-2511
▁bận	-2512
▁nhặt	-2513
▁chiết	-2514
▁ni	-2515
▁nhiễm	-2516
▁nếm	-2517
▁pho	-2518
▁vẹo	-2519
▁can	-2520
▁dưa	-2521
▁hí	-2522
▁sổ	-2523
công	-2524
nhân	-2525
▁cưỡi	-2526
ya	-2527
▁ngủi	-2528
▁level	-2529
thur	-2530
▁arthur	-2531
▁trai	-2532
▁ơn	-2533
ụt	-2534
▁king	-2535
▁chăng	-2536
huyết	-2537
đối	-2538
▁bãi	-2539
ran	-2540
▁lay	-2541
▁tợn	-2542
đa	-2543
▁duyệt	-2544
▁nhít	-2545
▁bồ	-2546
ngài	-2547
ngàn	-2548
▁bề	-2549
▁6000	-2550
▁buổi	-2551
▁nhức	-2552
▁phiếm	-2553
▁chôn	-2554
bạch	-2555
▁làn	-2556
▁nhạo	-2557
▁thèm	-2558
▁phồn	-2559
▁nạ	-2560
đệ	-2561
▁boss	-2562
▁khế	-2563
▁non	-2564
▁quấy	-2565
▁khiếp	-2566
▁xoát	-2567
yên	-2568
▁ơ	-2569
▁lăn	-2570
▁chui	-2571
▁giám	-2572
▁khốn	-2573
30	-2574
▁oa	-2575
▁xuẩn	-2576
as	-2577
al	-2578
▁tạc	-2579
▁giấy	-2580
▁khâu	-2581
▁tuân	-2582
sau	-2583
tam	-2584
▁tro	-2585
▁nhảm	-2586
▁dắt	-2587
60	-2588
▁mỏi	-2589
▁sửa	-2590
▁ảm	-2591
theo	-2592
▁thiểm	-2593
▁3000	-2594
▁khâm	-2595
▁nhĩ	-2596
▁sảng	-2597
▁sừng	-2598
▁hốc	-2599
▁sưu	-2600
▁đèn	-2601
▁trộm	-2602
hương	-2603
▁khuyên	-2604
▁á	-2605
▁mòn	-2606
▁ngơ	-2607
▁thục	-2608
▁nao	-2609
▁thủng	-2610
▁nhằm	-2611
vừa	-2612
▁bính	-2613
▁nuôi	-2614
▁dấp	-2615
▁nhúc	-2616
dù	-2617
▁xuân	-2618
▁(18	-2619
▁21	-2620
▁tấc	-2621
▁eo	-2622
▁hút	-2623
▁hạc	-2624
▁chip	-2625
▁nhợt	-2626
cu	-2627
▁nga	-2628
▁rửa	-2629
▁tao	-2630
▁sốt	-2631
▁nén	-2632
ồm	-2633
▁súc	-2634
▁vạch	-2635
▁chut	-2636
ris	-2637
▁bò	-2638
▁niết	-2639
phương	-2640
▁sùng	-2641
▁nhịp	-2642
vương	-2643
▁ngoạn	-2644
▁tặc	-2645
▁nghề	-2646
▁nan	-2647
▁hoắc	-2648
▁hẹn	-2649
▁rên	-2650
▁150	-2651
minh	-2652
▁lẽo	-2653
name	-2654
▁cõ	-2655
▁240	-2656
▁trao	-2657
▁cống	-2658
▁đoái	-2659
▁vẫy	-2660
▁đóa	-2661
mặc	-2662
▁chật	-2663
▁hì	-2664
▁nảy	-2665
,000	-2666
▁đùi	-2667
▁):	-2668
▁lanh	-2669
▁sam	-2670
▁túy	-2671
▁vứt	-2672
▁xúi	-2673
▁khoác	-2674
▁”	-2675
blin	-2676
▁ngầm	-2677
▁lột	-2678
▁hoạ	-2679
▁khích	-2680
thực	-2681
▁gao	-2682
▁gắt	-2683
▁nua	-2684
▁lorna	-2685
▁thiệt	-2686
▁goblin	-2687
▁ốc	-2688
ữa	-2689
đó	-2690
▁nhào	-2691
▁hái	-2692
▁mập	-2693
tiếp	-2694
▁tưu	-2695
sag	-2696
▁hán	-2697
lý	-2698
sagao	-2699
▁căng	-2700
▁trễ	-2701
▁giảo	-2702
ce	-2703
▁chán	-2704
▁chụp	-2705
▁ớt	-2706
▁thơm	-2707
▁%	-2708
▁kiềm	-2709
▁miểu	-2710
▁dịp	-2711
▁nỗ	-2712
▁28	-2713
▁tóm	-2714
▁giễu	-2715
▁lành	-2716
▁sủng	-2717
▁nặc	-2718
▁asagao	-2719
trên	-2720
về	-2721
▁khoái	-2722
▁pha	-2723
giết	-2724
▁tẩy	-2725
esar	-2726
▁bưng	-2727
▁er	-2728
▁bôn	-2729
▁váy	-2730
▁đậy	-2731
▁lăm	-2732
▁trật	-2733
nhất	-2734
▁bắp	-2735
▁min	-2736
▁tảng	-2737
▁tò	-2738
▁sướng	-2739
▁hầm	-2740
▁nghiệt	-2741
▁xướng	-2742
▁cong	-2743
▁chuông	-2744
▁chanh	-2745
▁dọc	-2746
▁dọn	-2747
▁âu	-2748
▁8000	-2749
▁ser	-2750
vạn	-2751
▁híp	-2752
▁núp	-2753
▁súng	-2754
▁trinh	-2755
▁lấn	-2756
▁nện	-2757
▁ngon	-2758
▁phác	-2759
▁bẫy	-2760
▁chóc	-2761
▁giãy	-2762
▁bỉ	-2763
thời	-2764
▁mini	-2765
',	-2766
▁tuỳ	-2767
▁640	-2768
di	-2769
▁trưng	-2770
▁đấy	-2771
▁góp	-2772
▁sắm	-2773
▁rọi	-2774
▁đớn	-2775
itka	-2776
▁chào	-2777
▁cớ	-2778
▁đãng	-2779
▁48	-2780
▁gai	-2781
▁nhoáng	-2782
▁chồng	-2783
▁hòn	-2784
thứ	-2785
▁gr	-2786
▁rủa	-2787
▁gang	-2788
▁móng	-2789
▁trác	-2790
▁bệch	-2791
ừm	-2792
▁tỳ	-2793
▁tắp	-2794
▁yểm	-2795
tất	-2796
▁lau	-2797
▁quất	-2798
vị	-2799
▁hách	-2800
▁giương	-2801
ổng	-2802
▁rớt	-2803
▁45	-2804
thân	-2805
▁lẫm	-2806
▁chòm	-2807
▁128	-2808
▁90	-2809
long	-2810
▁cắm	-2811
vũ	-2812
thiếu	-2813
▁trại	-2814
quả	-2815
▁chuột	-2816
or	-2817
▁nhúng	-2818
▁loạt	-2819
▁phai	-2820
▁hưu	-2821
thương	-2822
io	-2823
▁tròng	-2824
▁72	-2825
▁cặn	-2826
▁nỗi	-2827
▁gông	-2828
ỡn	-2829
▁bỏng	-2830
▁ngào	-2831
▁22	-2832
▁dạo	-2833
▁uẩn	-2834
cv	-2835
▁vãng	-2836
ter	-2837
▁bọt	-2838
▁dim	-2839
▁trư	-2840
▁nhăn	-2841
........	-2842
▁5000	-2843
do	-2844
▁tẫn	-2845
▁dimitka	-2846
▁1.	-2847
▁nhô	-2848
▁lánh	-2849
▁gà	-2850
▁xôi	-2851
▁banh	-2852
ùn	-2853
▁cạn	-2854
pp	-2855
hể	-2856
▁choàng	-2857
ăc	-2858
▁mảy	-2859
▁lưới	-2860
tử	-2861
▁ủ	-2862
▁kiểu	-2863
▁đẩu	-2864
▁ưa	-2865
▁35	-2866
chu	-2867
▁khốc	-2868
▁cập	-2869
▁xíu	-2870
▁khát	-2871
▁202	-2872
▁thiếp	-2873
▁khuê	-2874
đều	-2875
▁bầy	-2876
▁hốt	-2877
▁hãm	-2878
▁bể	-2879
▁dụa	-2880
tinh	-2881
ca	-2882
▁lò	-2883
▁câm	-2884
▁vả	-2885
▁múa	-2886
▁hang	-2887
tiên	-2888
▁23	-2889
siêu	-2890
▁dong	-2891
▁sấm	-2892
▁đồn	-2893
▁mịch	-2894
▁10000	-2895
ma	-2896
ga	-2897
hiên	-2898
▁lắp	-2899
▁caro	-2900
▁yếm	-2901
▁i	-2902
▁27	-2903
▁ve	-2904
đem	-2905
▁sói	-2906
▁khảm	-2907
.000	-2908
▁dật	-2909
▁ống	-2910
▁nguyền	-2911
▁triêu	-2912
▁cau	-2913
▁hoãn	-2914
▁háng	-2915
vya	-2916
▁nỏ	-2917
▁khép	-2918
......	-2919
bây	-2920
cha	-2921
▁cõng	-2922
▁khàn	-2923
õi	-2924
▁mo	-2925
▁lis	-2926
▁toa	-2927
▁miên	-2928
▁gối	-2929
▁vẩy	-2930
ăt	-2931
▁trâu	-2932
tuân	-2933
ton	-2934
ìu	-2935
lấy	-2936
▁đỗ	-2937
▁tắm	-2938
▁gồm	-2939
▁beta	-2940
▁gõ	-2941
▁rã	-2942
để	-2943
▁ổ	-2944
▁sàng	-2945
▁đành	-2946
▁rắc	-2947
ìa	-2948
md	-2949
▁mạn	-2950
▁ráp	-2951
▁ngạn	-2952
▁thoảng	-2953
▁trú	-2954
▁nịnh	-2955
▁2,	-2956
▁bần	-2957
▁cược	-2958
▁cath	-2959
▁nghễ	-2960
▁hẻ	-2961
đế	-2962
▁dối	-2963
▁rộn	-2964
hư	-2965
▁đắp	-2966
gh	-2967
▁bạt	-2968
▁avya	-2969
▁rác	-2970
12	-2971
▁mèo	-2972
▁sửng	-2973
.]	-2974
son	-2975
ell	-2976
nhanh	-2977
▁chiêm	-2978
màu	-2979
▁sỉ	-2980
phong	-2981
▁dặn	-2982
bệ	-2983
gặp	-2984
elin	-2985
gu	-2986
▁vãn	-2987
▁quẩn	-2988
so	-2989
▁loai	-2990
▁bã	-2991
▁3,	-2992
▁160	-2993
com	-2994
hàn	-2995
▁khuấy	-2996
▁trứng	-2997
chân	-2998
▁thùng	-2999
phụ	-3000
▁liêu	-3001
▁rũ	-3002
▁sét	-3003
▁tmd	-3004
esario	-3005
▁chris	-3006
▁mỏng	-3007
cher	-3008
▁chen	-3009
▁khấu	-3010
năm	-3011
▁bột	-3012
▁cậy	-3013
▁vất	-3014
▁100%	-3015
▁nhện	-3016
▁phường	-3017
40	-3018
▁bánh	-3019
▁khánh	-3020
▁trạm	-3021
▁à	-3022
▁".	-3023
hoàng	-3024
▁bân	-3025
▁ong	-3026
thái	-3027
▁chửi	-3028
▁dõi	-3029
▁họng	-3030
▁lẳng	-3031
ver	-3032
bu	-3033
ri	-3034
▁thình	-3035
▁nesario	-3036
▁xẻ	-3037
trần	-3038
▁trồng	-3039
▁chóp	-3040
▁cổng	-3041
▁ngột	-3042
▁đầm	-3043
▁coran	-3044
nhị	-3045
▁sen	-3046
▁server	-3047
▁truyencv	-3048
ía	-3049
▁bó	-3050
▁rào	-3051
▁hỏng	-3052
tc	-3053
▁nè	-3054
đồng	-3055
▁70	-3056
▁mtc	-3057
▁vou	-3058
▁hống	-3059
▁ngạnh	-3060
▁voucher	-3061
▁chin	-3062
▁ngửa	-3063
chư	-3064
▁lạp	-3065
ren	-3066
▁26	-3067
▁2.	-3068
▁mẫn	-3069
ero	-3070
xo	-3071
▁điền	-3072
▁kê	-3073
▁dại	-3074
▁vác	-3075
▁xộn	-3076
▁đạc	-3077
▁liêm	-3078
▁ruột	-3079
nhược	-3080
ard	-3081
▁256	-3082
▁dich	-3083
▁doãn	-3084
▁hãy	-3085
▁hông	-3086
▁sênh	-3087
tứ	-3088
▁chầm	-3089
linh	-3090
mấy	-3091
▁huyêt	-3092
▁se	-3093
▁dra	-3094
▁bậy	-3095
▁đổng	-3096
ngũ	-3097
▁],	-3098
banh	-3099
▁giày	-3100
▁km	-3101
ius	-3102
▁tăm	-3103
cula	-3104
▁ván	-3105
▁thề	-3106
▁hoá	-3107
▁ty	-3108
▁nel	-3109
▁chùm	-3110
▁dracula	-3111
nữ	-3112
▁đáo	-3113
▁heo	-3114
trung	-3115
▁nanh	-3116
▁bùi	-3117
▁lụa	-3118
▁rắm	-3119
▁xóa	-3120
imm	-3121
▁lisis	-3122
▁tiệm	-3123
mặt	-3124
▁phô	-3125
âp	-3126
▁gò	-3127
▁tật	-3128
▁aure	-3129
▁đê	-3130
việc	-3131
▁liếm	-3132
▁42	-3133
▁vờn	-3134
▁rễ	-3135
▁diếm	-3136
sở	-3137
▁khoang	-3138
yy	-3139
▁vỏ	-3140
bên	-3141
▁)!	-3142
▁xiết	-3143
▁truyenyy	-3144
hoa	-3145
▁tang	-3146
▁grimm	-3147
▁điềm	-3148
▁xí	-3149
loại	-3150
▁mịn	-3151
▁lucius	-3152
▁hãng	-3153
▁phiệt	-3154
▁uốn	-3155
▁thốt	-3156
▁34	-3157
▁võng	-3158
ịa	-3159
▁hèn	-3160
▁lặp	-3161
lục	-3162
▁480	-3163
▁kịt	-3164
▁xuât	-3165
▁nắng	-3166
▁tát	-3167
▁chập	-3168
▁nghiến	-3169
▁bọc	-3170
▁lụy	-3171
▁trưa	-3172
▁vùi	-3173
▁xách	-3174
▁nelson	-3175
▁chậc	-3176
▁màng	-3177
▁búa	-3178
▁100.	-3179
▁thẹn	-3180
▁sườn	-3181
▁vớt	-3182
▁bữa	-3183
▁chợ	-3184
thuộc	-3185
▁dưng	-3186
▁cơn	-3187
▁dai	-3188
▁rìu	-3189
▁!!"	-3190
hoàn	-3191
▁rụt	-3192
▁vụt	-3193
ragu	-3194
▁muôn	-3195
▁buld	-3196
▁buldragu	-3197
ýt	-3198
▁đền	-3199
▁main	-3200
▁ngửi	-3201
▁quách	-3202
địa	-3203
▁dar	-3204
▁rầy	-3205
▁nấu	-3206
▁sion	-3207
▁hò	-3208
▁nhũ	-3209
▁đùng	-3210
ún	-3211
ker	-3212
▁33	-3213
▁lờ	-3214
▁mậu	-3215
▁0(	-3216
▁chê	-3217
▁trớ	-3218
▁nhộn	-3219
▁lộng	-3220
▁xoẹt	-3221
khero	-3222
▁darkhero	-3223
▁hẹp	-3224
▁trệ	-3225
▁ngợi	-3226
ỏi	-3227
con	-3228
này	-3229
▁or	-3230
▁lình	-3231
bẩm	-3232
▁hiêu	-3233
▁ngừa	-3234
▁ủi	-3235
▁đục	-3236
thì	-3237
▁!!	-3238
thành	-3239
▁miệt	-3240
anda	-3241
se	-3242
sử	-3243
▁rạng	-3244
▁uổng	-3245
▁đọng	-3246
phía	-3247
▁húc	-3248
▁lina	-3249
kim	-3250
▁ướt	-3251
▁nhốt	-3252
▁nướng	-3253
▁cởi	-3254
▁gửi	-3255
▁thép	-3256
▁nhuộm	-3257
ru	-3258
coi	-3259
ngày	-3260
phốc	-3261
▁thói	-3262
▁dê	-3263
phải	-3264
▁chèo	-3265
▁cợt	-3266
▁táp	-3267
.)	-3268
▁chạp	-3269
ếng	-3270
▁trượt	-3271
mỗi	-3272
▁29	-3273
▁giếng	-3274
tỉ	-3275
gia	-3276
diệp	-3277
▁diêu	-3278
▁ngậm	-3279
cuối	-3280
thất	-3281
▁thính	-3282
vi	-3283
▁thớt	-3284
▁lằn	-3285
▁lái	-3286
▁bert	-3287
▁cành	-3288
vân	-3289
▁lẻ	-3290
▁.""	-3291
▁dội	-3292
dựa	-3293
▁bì	-3294
ki	-3295
▁cạm	-3296
▁cẩm	-3297
▁rộ	-3298
tiêu	-3299
▁20%	-3300
hạ	-3301
▁gợi	-3302
▁thây	-3303
▁gác	-3304
500	-3305
cao	-3306
▁tờ	-3307
▁đai	-3308
quá	-3309
trừ	-3310
▁nể	-3311
▁(12	-3312
▁cối	-3313
▁nấp	-3314
▁giằng	-3315
ngô	-3316
▁nồi	-3317
iel	-3318
▁khan	-3319
▁hù	-3320
toàn	-3321
▁ghê	-3322
▁chần	-3323
▁nhắn	-3324
▁đuốc	-3325
▁thằn	-3326
▁em	-3327
▁nháo	-3328
▁thong	-3329
▁0.	-3330
▁ngẫm	-3331
cảm	-3332
▁1600	-3333
▁choáng	-3334
cứ	-3335
▁xỉ	-3336
đung	-3337
▁vư	-3338
▁180	-3339
▁lẫy	-3340
▁luồng	-3341
▁ủy	-3342
▁170	-3343
▁cặp	-3344
▁khiêm	-3345
▁sóc	-3346
▁nhiễu	-3347
hừ	-3348
▁bùng	-3349
▁tưng	-3350
▁ngoãn	-3351
bắc	-3352
▁dẹp	-3353
huyền	-3354
▁ghé	-3355
▁giàu	-3356
▁thưa	-3357
hạm	-3358
usha	-3359
vâng	-3360
▁bền	-3361
▁mí	-3362
▁dầu	-3363
yusha	-3364
▁hoại	-3365
tự	-3366
▁96	-3367
▁99	-3368
▁chà	-3369
▁oan	-3370
▁đói	-3371
▁chấm	-3372
▁phiếu	-3373
▁38	-3374
miêu	-3375
▁hẻm	-3376
▁đắt	-3377
▁dành	-3378
▁giỡn	-3379
▁vũng	-3380
▁vắng	-3381
▁nhuận	-3382
▁kiệm	-3383
rn	-3384
▁kat	-3385
chiến	-3386
▁ngắm	-3387
▁gặt	-3388
pen	-3389
lly	-3390
elinda	-3391
▁katyusha	-3392
▁chẽ	-3393
▁trơ	-3394
▁thuỷ	-3395
▁tạch	-3396
bị	-3397
▁belinda	-3398
▁rỉ	-3399
▁tủy	-3400
▁gãi	-3401
▁kề	-3402
▁hoả	-3403
▁vườn	-3404
khó	-3405
▁hờ	-3406
▁37	-3407
▁đố	-3408
lăng	-3409
▁cưới	-3410
▁ấp	-3411
▁nét	-3412
hẳn	-3413
▁sậm	-3414
▁luyến	-3415
▁app	-3416
▁lãm	-3417
▁rât	-3418
▁biếng	-3419
xoẹt	-3420
truyền	-3421
xin	-3422
ad	-3423
▁aug	-3424
▁mắc	-3425
▁mồi	-3426
▁đốn	-3427
hồng	-3428
▁tiệc	-3429
nie	-3430
▁vảy	-3431
▁rít	-3432
▁đẫm	-3433
▁quáng	-3434
▁31	-3435
▁tá	-3436
▁gáp	-3437
▁hừng	-3438
▁nhăc	-3439
line	-3440
▁bồng	-3441
te	-3442
▁gân	-3443
▁ẩu	-3444
▁vò	-3445
▁39	-3446
▁vuông	-3447
hơn	-3448
▁bừa	-3449
▁căm	-3450
▁hạp	-3451
▁sầu	-3452
05	-3453
▁xua	-3454
▁kìm	-3455
▁thắn	-3456
▁ví	-3457
▁hực	-3458
▁thiểu	-3459
lĩnh	-3460
▁bẩn	-3461
▁đắm	-3462
▁ko	-3463
biết	-3464
▁trù	-3465
vẫn	-3466
cung	-3467
diêm	-3468
▁map	-3469
▁boong	-3470
▁10%	-3471
▁50%	-3472
▁lùn	-3473
▁hững	-3474
rah	-3475
▁ròng	-3476
▁roi	-3477
▁giông	-3478
▁nghẹn	-3479
▁đờ	-3480
oanh	-3481
▁lơn	-3482
▁gill	-3483
bằng	-3484
▁đia	-3485
▁nợ	-3486
[.]	-3487
▁3.	-3488
▁vắn	-3489
▁ven	-3490
hỗ	-3491
▁-30	-3492
▁diên	-3493
▁ỷ	-3494
bái	-3495
lời	-3496
▁khoanh	-3497
▁ga	-3498
▁béo	-3499
▁dán	-3500
▁thung	-3501
rõ	-3502
▁biêt	-3503
▁dinh	-3504
▁trơn	-3505
ngay	-3506
tiền	-3507
▁tháo	-3508
▁-05	-3509
▁cỏi	-3510
▁2024	-3511
ờm	-3512
▁trẫm	-3513
phi	-3514
ưởi	-3515
▁bặm	-3516
▁com	-3517
▁nhấp	-3518
▁nuối	-3519
▁sanh	-3520
▁as	-3521
▁ter	-3522
▁tôi	-3523
▁phan	-3524
▁um	-3525
giống	-3526
▁rụng	-3527
▁sh	-3528
▁lặn	-3529
▁nôn	-3530
▁ghen	-3531
▁nhấn	-3532
▁đuối	-3533
hỗn	-3534
mau	-3535
▁hụt	-3536
▁cathy	-3537
▁ngượng	-3538
▁ách	-3539
khởi	-3540
▁đọa	-3541
▁ngạt	-3542
▁điếc	-3543
▁rư	-3544
ớp	-3545
▁nâu	-3546
▁giấc	-3547
▁gạch	-3548
ate	-3549
▁mánh	-3550
tái	-3551
ley	-3552
▁ngớt	-3553
thượng	-3554
▁dịu	-3555
▁mao	-3556
tuyệt	-3557
▁amanda	-3558
▁sí	-3559
▁ồn	-3560
▁lở	-3561
▁tớ	-3562
...”	-3563
▁váng	-3564
▁đính	-3565
▁bếp	-3566
▁mài	-3567
▁má	-3568
▁gar	-3569
▁vươ	-3570
mọi	-3571
▁gả	-3572
▁cháu	-3573
▁ngùng	-3574
abe	-3575
▁cuốc	-3576
▁quyên	-3577
▁oai	-3578
▁chìa	-3579
▁khoản	-3580
lu	-3581
▁êm	-3582
▁eri	-3583
▁pal	-3584
▁ngắt	-3585
▁niềm	-3586
▁gỡ	-3587
▁hất	-3588
▁nhún	-3589
▁75	-3590
liên	-3591
tình	-3592
▁sarah	-3593
▁thiển	-3594
đánh	-3595
▁lảo	-3596
▁nền	-3597
mới	-3598
▁bô	-3599
mina	-3600
▁tấu	-3601
▁chước	-3602
lưu	-3603
▁dou	-3604
▁kelly	-3605
▁ang	-3606
▁gra	-3607
▁chuyền	-3608
▁nghiễm	-3609
▁liễn	-3610
▁khiên	-3611
▁yểu	-3612
▁đái	-3613
der	-3614
ỳnh	-3615
▁hòm	-3616
▁thờ	-3617
▁nhét	-3618
▁vợ	-3619
▁1500	-3620
▁anker	-3621
▁hát	-3622
▁biếc	-3623
▁cút	-3624
▁cảng	-3625
▁đậu	-3626
▁nạm	-3627
▁thoái	-3628
▁báu	-3629
▁bét	-3630
▁lốc	-3631
▁nghèo	-3632
▁chăn	-3633
▁gọn	-3634
▁nãi	-3635
▁loáng	-3636
)]	-3637
▁',	-3638
▁cv	-3639
▁mẻ	-3640
▁rét	-3641
▁đần	-3642
▁đứa	-3643
▁chọi	-3644
▁huỳnh	-3645
▁ĩ	-3646
▁cán	-3647
▁mạp	-3648
▁buôn	-3649
ươu	-3650
▁hển	-3651
thôi	-3652
▁quê	-3653
▁tòi	-3654
▁xao	-3655
há	-3656
▁cà	-3657
innie	-3658
▁domina	-3659
▁dĩnh	-3660
▁vụng	-3661
sho	-3662
▁lọi	-3663
▁pals	-3664
▁thầy	-3665
▁thuấn	-3666
▁40.000	-3667
▁xẹt	-3668
▁chối	-3669
▁ther	-3670
▁cuống	-3671
▁hức	-3672
mn	-3673
▁nón	-3674
ls	-3675
est	-3676
▁par	-3677
▁naga	-3678
▁caroline	-3679
nhi	-3680
nghĩ	-3681
thủy	-3682
▁lều	-3683
▁chằng	-3684
▁converter	-3685
ởm	-3686
▁dở	-3687
▁nghê	-3688
▁tởm	-3689
▁quest	-3690
trận	-3691
▁kẹt	-3692
▁chịt	-3693
▁41	-3694
▁cọ	-3695
▁xù	-3696
▁khéo	-3697
▁ngan	-3698
dra	-3699
ust	-3700
▁5,	-3701
▁tủ	-3702
điện	-3703
▁hươu	-3704
▁mùa	-3705
▁phúng	-3706
(.)	-3707
▁el	-3708
ngọc	-3709
oniel	-3710
cố	-3711
▁44	-3712
▁héo	-3713
▁lí	-3714
▁aus	-3715
▁bồn	-3716
▁met	-3717
▁mọn	-3718
▁nhổ	-3719
▁vóc	-3720
▁keng	-3721
đo	-3722
▁mốt	-3723
▁hổng	-3724
▁bịch	-3725
▁rau	-3726
▁trọc	-3727
▁trụi	-3728
▁đàng	-3729
▁august	-3730
0:	-3731
ara	-3732
▁56	-3733
▁me	-3734
tiến	-3735
▁ửng	-3736
▁nhác	-3737
▁rảnh	-3738
gấp	-3739
▁gián	-3740
bốn	-3741
▁trích	-3742
100	-3743
cực	-3744
khách	-3745
▁thám	-3746
hình	-3747
▁nhạy	-3748
▁vươn	-3749
▁đoản	-3750
mon	-3751
▁râm	-3752
▁augustus	-3753
................	-3754
esa	-3755
▁mì	-3756
▁xui	-3757
▁3600	-3758
▁khụ	-3759
▁trút	-3760
tối	-3761
▁00	-3762
▁đung	-3763
▁15000	-3764
▁.”	-3765
▁suýt	-3766
▁theresa	-3767
đồ	-3768
!""	-3769
reu	-3770
▁720	-3771
▁măt	-3772
lôi	-3773
▁cmn	-3774
▁1280	-3775
thạch	-3776
▁ranh	-3777
▁phùng	-3778
▁tiều	-3779
▁điếm	-3780
tới	-3781
▁tùm	-3782
▁đòn	-3783
arren	-3784
▁breu	-3785
▁loren	-3786
ana	-3787
▁tóe	-3788
▁bông	-3789
▁chủy	-3790
▁thet	-3791
đầu	-3792
▁xoắn	-3793
▁hổn	-3794
▁tụng	-3795
cẩn	-3796
▁(,	-3797
▁loè	-3798
▁rỗi	-3799
▁gen	-3800
▁nhài	-3801
▁tòng	-3802
py	-3803
▁lạn	-3804
▁yết	-3805
▁vầng	-3806
đám	-3807
(1	-3808
ốm	-3809
ớng	-3810
▁họp	-3811
▁trá	-3812
đợi	-3813
▁mỡ	-3814
▁nại	-3815
▁sàn	-3816
▁rải	-3817
▁khỏe	-3818
▁soát	-3819
▁beate	-3820
▁nhướng	-3821
▁củi	-3822
ngược	-3823
▁thỏi	-3824
▁té	-3825
▁hoạn	-3826
rro	-3827
▁(4	-3828
▁43	-3829
sinh	-3830
▁kel	-3831
▁nếp	-3832
▁trối	-3833
▁nhũn	-3834
▁eq	-3835
phần	-3836
▁108	-3837
▁cãi	-3838
▁dăm	-3839
▁xán	-3840
▁giêt	-3841
ốp	-3842
han	-3843
▁ngọa	-3844
▁quăng	-3845
chi	-3846
ise	-3847
▁cộc	-3848
▁rùa	-3849
▁loris	-3850
lli	-3851
▁54	-3852
▁1800	-3853
dar	-3854
tìm	-3855
▁4.	-3856
▁hăn	-3857
▁lõm	-3858
▁vời	-3859
▁sẻ	-3860
dương	-3861
▁sina	-3862
▁gay	-3863
▁giãn	-3864
▁lũng	-3865
abeth	-3866
▁làng	-3867
▁nhang	-3868
erty	-3869
▁eli	-3870
▁chờn	-3871
▁khoe	-3872
gherty	-3873
▁moi	-3874
▁đới	-3875
ine	-3876
▁in	-3877
▁giỏi	-3878
▁quầy	-3879
tựa	-3880
▁9-	-3881
▁512	-3882
▁open	-3883
▁grace	-3884
▁200000	-3885
xác	-3886
▁900	-3887
erine	-3888
bàn	-3889
uise	-3890
▁700	-3891
▁gót	-3892
▁loài	-3893
▁sưng	-3894
▁sl	-3895
▁son	-3896
--------	-3897
▁bóc	-3898
▁quà	-3899
tài	-3900
▁76	-3901
▁xắn	-3902
ngân	-3903
▁bôi	-3904
▁2023	-3905
▁ngắc	-3906
▁phồng	-3907
▁9-10	-3908
▁điếu	-3909
▁20000	-3910
▁gượng	-3911
lia	-3912
atso	-3913
▁gìn	-3914
▁quơ	-3915
▁reo	-3916
▁thự	-3917
triệu	-3918
▁budar	-3919
▁budaratso	-3920
▁copy	-3921
▁loang	-3922
▁paris	-3923
đạo	-3924
▁lổ	-3925
▁nhủ	-3926
chuẩn	-3927
▁cold	-3928
▁tahan	-3929
ry	-3930
▁xuy	-3931
▁thiệp	-3932
▁tị	-3933
▁ali	-3934
▁ken	-3935
▁rãnh	-3936
▁catherine	-3937
▁rạn	-3938
▁khoan	-3939
▁louise	-3940
tổ	-3941
▁gro	-3942
sự	-3943
ing	-3944
▁ngói	-3945
kết	-3946
tone	-3947
.«	-3948
sẽ	-3949
▁30%	-3950
▁lỡ	-3951
▁xẻo	-3952
▁mễ	-3953
▁vể	-3954
▁chat	-3955
trở	-3956
từng	-3957
▁tẩm	-3958
lc	-3959
iểu	-3960
▁rưởi	-3961
▁thấm	-3962
điều	-3963
tin	-3964
ime	-3965
mang	-3966
▁loa	-3967
▁khoá	-3968
▁trộn	-3969
tạ	-3970
nha	-3971
dạng	-3972
▁náy	-3973
▁cám	-3974
▁thệ	-3975
đường	-3976
).	-3977
▁áy	-3978
▁lúng	-3979
▁50000	-3980
ds	-3981
▁51	-3982
▁»!	-3983
ngoại	-3984
▁chêt	-3985
▁vểnh	-3986
phượng	-3987
▁xì	-3988
▁ham	-3989
▁tom	-3990
▁củng	-3991
▁huân	-3992
▁bơi	-3993
▁suât	-3994
đông	-3995
▁10,	-3996
▁kiêm	-3997
tên	-3998
▁102	-3999
▁vặt	-4000
▁tich	-4001
ãng	-4002
▁4,	-4003
▁buốt	-4004
▁giếm	-4005
▁xổ	-4006
chết	-4007
▁960	-4008
nhiều	-4009
▁ngóng	-4010
▁vù	-4011
▁nọt	-4012
dạ	-4013
rg	-4014
êp	-4015
uân	-4016
yêu	-4017
▁2800	-4018
▁66	-4019
▁dào	-4020
▁gặm	-4021
▁tráo	-4022
▁satan	-4023
úy	-4024
hảo	-4025
▁ẩm	-4026
▁bến	-4027
▁gẫu	-4028
▁toms	-4029
▁»(	-4030
càng	-4031
▁lây	-4032
▁sập	-4033
▁nhọc	-4034
▁toan	-4035
bắt	-4036
▁].	-4037
▁dỗ	-4038
▁gậy	-4039
▁hân	-4040
▁dougherty	-4041
ett	-4042
▁huỷ	-4043
rốt	-4044
▁at	-4045
▁mầm	-4046
▁audra	-4047
▁ngươc	-4048
▁52	-4049
▁[.]	-4050
▁oải	-4051
tộc	-4052
▁uể	-4053
▁tải	-4054
ly	-4055
os	-4056
tề	-4057
ịu	-4058
▁xổm	-4059
luyện	-4060
chúc	-4061
▁360	-4062
▁vùn	-4063
băng	-4064
▁sài	-4065
▁phẳng	-4066
rrods	-4067
▁harrods	-4068
ann	-4069
hải	-4070
▁57	-4071
▁sái	-4072
▁angus	-4073
▁slime	-4074
▁gấm	-4075
▁chốn	-4076
▁trèo	-4077
▁draculas	-4078
▁đòi	-4079
▁quai	-4080
▁ray	-4081
▁bổng	-4082
▁ruộng	-4083
cổ	-4084
sợ	-4085
▁""	-4086
▁sầm	-4087
úm	-4088
▁59	-4089
▁69	-4090
liễu	-4091
▁(14	-4092
▁lom	-4093
thông	-4094
ĩu	-4095
▁top	-4096
▁ngấn	-4097
▁thòi	-4098
âc	-4099
ộp	-4100
▁thùy	-4101
▁thẫm	-4102
lập	-4103
▁vờ	-4104
lock	-4105
tính	-4106
▁tre	-4107
▁khiêng	-4108
căn	-4109
ies	-4110
▁vút	-4111
▁khảnh	-4112
▁thằng	-4113
▁nhượng	-4114
ger	-4115
burg	-4116
▁bầm	-4117
▁(2	-4118
▁65	-4119
▁al	-4120
▁shi	-4121
▁chậu	-4122
▁khăng	-4123
vốn	-4124
đặc	-4125
dừng	-4126
▁xóm	-4127
nhớ	-4128
▁sữa	-4129
▁series	-4130
ps	-4131
xu	-4132
▁clo	-4133
▁thoả	-4134
▁bug	-4135
▁thâu	-4136
ah	-4137
▁1:	-4138
vong	-4139
phá	-4140
kiêu	-4141
tông	-4142
▁quạt	-4143
▁nê	-4144
dùng	-4145
▁gop	-4146
▁mân	-4147
▁thât	-4148
▁khuyển	-4149
plan	-4150
▁kai	-4151
▁nhẫm	-4152
!!	-4153
▁55	-4154
chưa	-4155
▁nắp	-4156
▁xài	-4157
plank	-4158
▁trâm	-4159
▁nỡ	-4160
load	-4161
▁kềm	-4162
▁chau	-4163
▁chuc	-4164
▁nhát	-4165
▁tồi	-4166
▁5.	-4167
▁kí	-4168
▁bon	-4169
quang	-4170
▁chua	-4171
▁bói	-4172
▁kèn	-4173
▁rập	-4174
▁sệt	-4175
▁thố	-4176
▁noãn	-4177
▁thoa	-4178
to	-4179
▁bẻ	-4180
▁gấu	-4181
▁lườm	-4182
▁caesar	-4183
mộc	-4184
▁53	-4185
rley	-4186
▁ngõ	-4187
▁văng	-4188
▁triện	-4189
app	-4190
lạc	-4191
tis	-4192
▁10.	-4193
▁dẫm	-4194
▁ngó	-4195
▁80.000	-4196
mở	-4197
lam	-4198
▁hộc	-4199
▁ngòm	-4200
vật	-4201
▁đam	-4202
▁nheo	-4203
▁thốn	-4204
▁gangplank	-4205
▁ùng	-4206
▁100%,	-4207
15	-4208
▁!,	-4209
▁49	-4210
điểm	-4211
▁47	-4212
lton	-4213
▁gớm	-4214
▁lác	-4215
▁ngác	-4216
may	-4217
▁lỵ	-4218
▁hod	-4219
▁lúa	-4220
▁nính	-4221
ẳm	-4222
▁7,	-4223
▁hé	-4224
đứng	-4225
ơm	-4226
sớm	-4227
▁46	-4228
▁câp	-4229
▁hẻo	-4230
▁xót	-4231
▁đỗng	-4232
▁shirley	-4233
vệ	-4234
---	-4235
phu	-4236
▁úy	-4237
▁khê	-4238
▁mỉa	-4239
▁thẳm	-4240
▁vâng	-4241
▁dỡ	-4242
▁rob	-4243
trách	-4244
▁bùa	-4245
▁cõi	-4246
▁ngòi	-4247
▁100%.	-4248
ame	-4249
chớ	-4250
▁68	-4251
▁pu	-4252
ngọa	-4253
ruer	-4254
thôn	-4255
▁gốm	-4256
▁phủi	-4257
▁thềm	-4258
▁trôn	-4259
go	-4260
ech	-4261
gang	-4262
▁cua	-4263
▁nhì	-4264
echat	-4265
▁baal	-4266
dư	-4267
▁mến	-4268
▁nui	-4269
▁tằm	-4270
▁phơi	-4271
cô	-4272
kẻ	-4273
▁vơ	-4274
▁bám	-4275
▁dậm	-4276
▁ger	-4277
▁lọc	-4278
▁chèn	-4279
▁chót	-4280
▁thứu	-4281
▁moira	-4282
cụ	-4283
▁2:	-4284
lliel	-4285
nload	-4286
▁boer	-4287
▁khơi	-4288
rầm	-4289
▁89	-4290
no	-4291
▁85	-4292
▁buồm	-4293
▁then	-4294
lantis	-4295
▁luống	-4296
25	-4297
cơ	-4298
duy	-4299
tes	-4300
▁dps	-4301
▁sẹo	-4302
▁khán	-4303
▁stone	-4304
kể	-4305
iya	-4306
phù	-4307
▁tì	-4308
▁nghé	-4309
▁ngời	-4310
▁phào	-4311
00,	-4312
hỏa	-4313
▁cáp	-4314
▁cọc	-4315
▁nộp	-4316
▁vắt	-4317
pc	-4318
▁kẹp	-4319
▁game	-4320
▁carol	-4321
ers	-4322
▁0,	-4323
▁84	-4324
▁nhe	-4325
▁quắp	-4326
▁atlantis	-4327
ke	-4328
bao	-4329
mục	-4330
▁xói	-4331
cuồng	-4332
▁hinh	-4333
▁higang	-4334
▁mụ	-4335
▁200000(	-4336
▁sailong	-4337
tỷ	-4338
ẫng	-4339
shor	-4340
▁npc	-4341
eline	-4342
▁50%,	-4343
▁ulliel	-4344
▁78	-4345
tham	-4346
▁420	-4347
▁lòe	-4348
▁lầy	-4349
▁pruer	-4350
▁vượng	-4351
▁10,000	-4352
ci	-4353
oa	-4354
ast	-4355
▁vê	-4356
▁đẽ	-4357
▁101	-4358
▁dòm	-4359
▁lồi	-4360
▁ngọ	-4361
▁nấm	-4362
▁nghiêu	-4363
yan	-4364
lsen	-4365
▁keo	-4366
▁cang	-4367
nguyệt	-4368
▁cụt	-4369
▁doạ	-4370
▁oka	-4371
▁thừng	-4372
.'	-4373
▁rose	-4374
tôn	-4375
▁5%	-4376
▁tụy	-4377
▁xôn	-4378
▁giặc	-4379
▁ryan	-4380
▁thắm	-4381
cas	-4382
▁210	-4383
▁nhót	-4384
▁oánh	-4385
▁nã	-4386
▁phược	-4387
bảo	-4388
▁bẩy	-4389
▁hời	-4390
nương	-4391
▁bềnh	-4392
▁rùng	-4393
▁khuya	-4394
▁liếng	-4395
cia	-4396
dal	-4397
xuất	-4398
▁bĩu	-4399
▁»."	-4400
huống	-4401
▁hước	-4402
▁khấp	-4403
▁artes	-4404
khá	-4405
▁nhè	-4406
cường	-4407
escon	-4408
▁trơi	-4409
caster	-4410
▁andal	-4411
▁tiêng	-4412
cảnh	-4413
elle	-4414
▁gói	-4415
▁nhói	-4416
emon	-4417
kinh	-4418
▁samast	-4419
ku	-4420
”,	-4421
lle	-4422
▁87	-4423
▁98	-4424
xích	-4425
▁olsen	-4426
gần	-4427
▁1%	-4428
▁tẹo	-4429
esang	-4430
xú	-4431
▁144	-4432
▁khờ	-4433
▁nín	-4434
▁nũng	-4435
▁gesang	-4436
▁hodder	-4437
▁nhưỡng	-4438
cự	-4439
▁nỉ	-4440
▁beh	-4441
▁loá	-4442
hoang	-4443
▁cạch	-4444
▁lancaster	-4445
▁bấm	-4446
▁nấy	-4447
rs	-4448
▁"«	-4449
▁58	-4450
▁dâu	-4451
▁eric	-4452
▁ngút	-4453
▁thỏm	-4454
du	-4455
▁6,	-4456
▁vó	-4457
anny	-4458
▁tôm	-4459
▁bỉnh	-4460
▁cọng	-4461
▁thướt	-4462
khi	-4463
▁)(	-4464
chạy	-4465
thậm	-4466
▁192	-4467
▁lút	-4468
▁nầy	-4469
▁chăt	-4470
▁đảng	-4471
quỷ	-4472
ron	-4473
▁ka	-4474
dưới	-4475
đỉnh	-4476
▁hợt	-4477
▁ngấp	-4478
gy	-4479
hay	-4480
lực	-4481
nên	-4482
▁ce	-4483
▁dẻ	-4484
▁ky	-4485
bình	-4486
▁lẩy	-4487
▁nat	-4488
▁chuỗi	-4489
▁xưởng	-4490
thư	-4491
▁8,	-4492
tern	-4493
▁chơ	-4494
▁ker	-4495
araku	-4496
▁gien	-4497
".	-4498
▁nịu	-4499
▁sấp	-4500
▁hack	-4501
▁rước	-4502
▁alicia	-4503
bá	-4504
mẹ	-4505
số	-4506
vận	-4507
bách	-4508
hoắc	-4509
▁lót	-4510
▁rôi	-4511
▁vẩn	-4512
tuyết	-4513
deo	-4514
risa	-4515
lv	-4516
dám	-4517
huy	-4518
trì	-4519
lcan	-4520
▁què	-4521
ngạch	-4522
▁kent	-4523
ik	-4524
▁88	-4525
▁xã	-4526
▁hót	-4527
▁nhàm	-4528
▁nhầm	-4529
kho	-4530
▁dờn	-4531
▁nến	-4532
▁video	-4533
bán	-4534
côn	-4535
thủ	-4536
▁63	-4537
▁81	-4538
▁lv	-4539
đinh	-4540
▁orti	-4541
▁krisa	-4542
▁naraku	-4543
)!	-4544
cầu	-4545
sao	-4546
▁1(	-4547
▁cẫng	-4548
▁erica	-4549
▁vulcan	-4550
lei	-4551
▁dồi	-4552
▁chộp	-4553
▁ngoa	-4554
▁phưởng	-4555
cầm	-4556
thi	-4557
vấn	-4558
bành	-4559
▁cấn	-4560
▁dơi	-4561
▁tấp	-4562
▁gieo	-4563
▁bời	-4564
▁kén	-4565
▁vưu	-4566
▁muối	-4567
▁nhẹn	-4568
▁noah	-4569
▁phim	-4570
▁thap	-4571
hồi	-4572
▁67	-4573
▁ấu	-4574
▁140	-4575
▁rong	-4576
▁quyệt	-4577
quân	-4578
▁chử	-4579
▁dệt	-4580
▁hổi	-4581
▁líu	-4582
▁phê	-4583
▁(4000	-4584
▁groth	-4585
▁thịch	-4586
▁gaelle	-4587
▁roy	-4588
▁miêng	-4589
hưu	-4590
▁ót	-4591
▁lốp	-4592
▁vượn	-4593
▁bốp	-4594
▁chuộc	-4595
▁nhung	-4596
min	-4597
rnet	-4598
▁đốc	-4599
chael	-4600
▁cornet	-4601
▁bê	-4602
tras	-4603
▁ắng	-4604
ngoài	-4605
▁ceci	-4606
▁trọt	-4607
▁62	-4608
chậm	-4609
▁280	-4610
▁bặt	-4611
▁sạn	-4612
▁phới	-4613
cút	-4614
khí	-4615
khai	-4616
▁cạp	-4617
▁gri	-4618
▁trỏ	-4619
▁vịt	-4620
▁ngứa	-4621
▁sean	-4622
mai	-4623
▁ục	-4624
▁110	-4625
▁bỡn	-4626
▁doan	-4627
▁gars	-4628
▁soạt	-4629
▁nolan	-4630
dị	-4631
isa	-4632
đao	-4633
▁74	-4634
kill	-4635
▁bai	-4636
tiếng	-4637
▁bran	-4638
▁holl	-4639
▁lucia	-4640
▁skill	-4641
▁xuông	-4642
▁cecilia	-4643
tư	-4644
văn	-4645
▁xú	-4646
▁elie	-4647
▁quắc	-4648
▁thụy	-4649
thú	-4650
▁95	-4651
etti	-4652
▁220	-4653
▁lận	-4654
▁lậu	-4655
ane	-4656
ela	-4657
ngu	-4658
éti	-4659
till	-4660
▁ngải	-4661
▁tróc	-4662
tillard	-4663
▁michael	-4664
ud	-4665
ũa	-4666
bát	-4667
lip	-4668
▁(3	-4669
giao	-4670
▁200(	-4671
▁khám	-4672
▁lóng	-4673
lớn	-4674
▁po	-4675
▁bom	-4676
▁bâc	-4677
▁thỉ	-4678
▁búng	-4679
▁»...	-4680
vãn	-4681
▁93	-4682
chung	-4683
▁vành	-4684
ep	-4685
▁mổ	-4686
vĩnh	-4687
▁quế	-4688
▁đặn	-4689
▁đỗi	-4690
▁quin	-4691
▁nghiễn	-4692
▁ii	-4693
▁rể	-4694
▁len	-4695
art	-4696
tuy	-4697
amon	-4698
dall	-4699
▁ưỡn	-4700
▁ngần	-4701
▁ngông	-4702
lla	-4703
ator	-4704
▁350	-4705
▁450	-4706
▁ran	-4707
▁lett	-4708
▁xuýt	-4709
usa	-4710
mond	-4711
minator	-4712
võ	-4713
ban	-4714
ghi	-4715
ork	-4716
▁voi	-4717
▁péti	-4718
▁diana	-4719
▁beamon	-4720
▁truyệncv	-4721
?!	-4722
cer	-4723
rey	-4724
tas	-4725
▁97	-4726
▁xoá	-4727
▁keane	-4728
▁trươc	-4729
▁terminator	-4730
bb	-4731
un	-4732
quy	-4733
▁mạ	-4734
đẳng	-4735
▁30,	-4736
▁ngát	-4737
ul	-4738
▁250	-4739
▁bịu	-4740
▁lạt	-4741
▁vét	-4742
▁kelburg	-4743
▁randall	-4744
hả	-4745
nó	-4746
cần	-4747
oan	-4748
▁(9	-4749
▁ah	-4750
▁bọ	-4751
▁sọ	-4752
illi	-4753
▁129	-4754
▁bấy	-4755
▁gạo	-4756
▁siết	-4757
▁tành	-4758
illiam	-4759
khương	-4760
▁celine	-4761
mẫu	-4762
đưa	-4763
▁77	-4764
rall	-4765
▁cằn	-4766
▁kiền	-4767
pencer	-4768
▁nashor	-4769
▁cotillard	-4770
▁khớp	-4771
đang	-4772
▁cày	-4773
▁hòe	-4774
▁toé	-4775
▁đẫn	-4776
▁đệm	-4777
ylock	-4778
▁chay	-4779
▁kệch	-4780
30:	-4781
lao	-4782
vây	-4783
trời	-4784
trực	-4785
▁sss	-4786
lando	-4787
▁hiềm	-4788
▁orlando	-4789
đột	-4790
▁bịt	-4791
▁lóa	-4792
▁phì	-4793
huynh	-4794
▁ghẹo	-4795
▁kiết	-4796
▁200%.	-4797
ed	-4798
chỗ	-4799
ess	-4800
đơn	-4801
▁vén	-4802
▁đồi	-4803
llega	-4804
tương	-4805
▁kelp	-4806
▁lyla	-4807
▁asetti	-4808
▁thrall	-4809
):	-4810
▁and	-4811
▁xốc	-4812
▁diêt	-4813
▁gary	-4814
▁buggy	-4815
sát	-4816
miện	-4817
▁hần	-4818
▁ráng	-4819
▁york	-4820
cẩu	-4821
▁125	-4822
▁130	-4823
▁láo	-4824
▁nớt	-4825
▁cole	-4826
▁còng	-4827
▁tina	-4828
▁ồ	-4829
▁6.	-4830
▁dâm	-4831
▁tưới	-4832
õa	-4833
200	-4834
cấm	-4835
▁83	-4836
land	-4837
▁lún	-4838
▁răn	-4839
▁sút	-4840
▁150%,	-4841
▁thách	-4842
1,	-4843
eh	-4844
ena	-4845
uấy	-4846
▁rẽ	-4847
burn	-4848
ssad	-4849
thấy	-4850
▁két	-4851
▁kich	-4852
trấn	-4853
▁12,	-4854
▁cay	-4855
▁lạy	-4856
▁rúc	-4857
▁tỉm	-4858
▁tủm	-4859
ternet	-4860
18	-4861
▁79	-4862
▁bễ	-4863
▁sủ	-4864
phan	-4865
▁max	-4866
▁quýt	-4867
▁spencer	-4868
alt	-4869
man	-4870
rot	-4871
▁vòm	-4872
▁kerry	-4873
tạm	-4874
▁73	-4875
▁82	-4876
▁cức	-4877
▁sẫm	-4878
▁xay	-4879
hburn	-4880
▁hòng	-4881
▁đắng	-4882
tốc	-4883
▁internet	-4884
thổ	-4885
▁cù	-4886
▁rồ	-4887
▁cóc	-4888
▁20%,	-4889
▁philip	-4890
yri	-4891
▁rẻ	-4892
ster	-4893
▁gom	-4894
▁lặc	-4895
▁tôt	-4896
▁đũa	-4897
▁cháo	-4898
▁mượt	-4899
▁geralt	-4900
las	-4901
▁chẻ	-4902
▁cài	-4903
▁phap	-4904
▁đoàng	-4905
▁bolton	-4906
ịt	-4907
”.	-4908
emm	-4909
lor	-4910
độc	-4911
▁'"	-4912
▁92	-4913
▁cò	-4914
▁de	-4915
xoạt	-4916
▁105	-4917
▁25%	-4918
▁sáp	-4919
▁vơi	-4920
▁lạch	-4921
▁ngóc	-4922
ũi	-4923
ruy	-4924
▁lấm	-4925
▁nhéo	-4926
▁ngỗng	-4927
▁---------	-4928
dẫn	-4929
▁94	-4930
▁bè	-4931
atos	-4932
nháy	-4933
▁112	-4934
▁mâm	-4935
▁1900	-4936
▁ạ	-4937
lợi	-4938
rence	-4939
▁chàm	-4940
▁ghim	-4941
▁xoạt	-4942
▁đong	-4943
khoảng	-4944
▁chưng	-4945
▁ngoắc	-4946
%(	-4947
sĩ	-4948
▁vịn	-4949
▁thêu	-4950
▁nghịt	-4951
▁ashburn	-4952
mu	-4953
khụ	-4954
nhạc	-4955
trẫm	-4956
địch	-4957
▁50,	-4958
▁cựu	-4959
▁gio	-4960
▁rầu	-4961
▁vua	-4962
▁50%.	-4963
▁sano	-4964
▁roland	-4965
mấu	-4966
đêm	-4967
▁86	-4968
▁rà	-4969
chắc	-4970
lack	-4971
▁dầy	-4972
▁100,	-4973
▁300.	-4974
▁thạo	-4975
▁natia	-4976
ôc	-4977
suy	-4978
tâm	-4979
▁dặc	-4980
inisa	-4981
▁chặc	-4982
▁ghép	-4983
▁nhac	-4984
▁sính	-4985
▁điệt	-4986
▁-----	-4987
inisala	-4988
trasiya	-4989
▁bellega	-4990
10:	-4991
ami	-4992
nho	-4993
binh	-4994
quan	-4995
yril	-4996
▁135	-4997
▁háo	-4998
▁hiệt	-4999
nghịch	-5000
.......	-5001
▁putrasiya	-5002
??	-5003
40:	-5004
▁vá	-5005
▁úp	-5006
bert	-5007
ckeh	-5008
ella	-5009
nhận	-5010
▁lưc	-5011
▁tua	-5012
▁vạt	-5013
▁nick	-5014
▁ruồi	-5015
▁thắt	-5016
▁triền	-5017
ckehart	-5018
▁thanatos	-5019
▁3:	-5020
ners	-5021
phát	-5022
▁dạt	-5023
▁giở	-5024
▁2100	-5025
▁dằng	-5026
▁tánh	-5027
▁banners	-5028
▁shylock	-5029
bo	-5030
lt	-5031
▁ò	-5032
▁rê	-5033
brey	-5034
▁gáy	-5035
▁loi	-5036
▁đút	-5037
▁rưới	-5038
▁2000(1	-5039
▁61	-5040
▁ix	-5041
▁nọ	-5042
▁côi	-5043
▁gảy	-5044
▁nản	-5045
▁nhờn	-5046
nguyện	-5047
%!	-5048
▁coo	-5049
▁phò	-5050
▁tuý	-5051
▁chừa	-5052
▁leng	-5053
▁loát	-5054
▁thoi	-5055
ne	-5056
tiềm	-5057
tăng	-5058
▁hớp	-5059
▁khua	-5060
▁lách	-5061
▁rườm	-5062
▁thát	-5063
▁đanh	-5064
ôm	-5065
lên	-5066
▁1-	-5067
răng	-5068
động	-5069
▁nóc	-5070
▁vịnh	-5071
▁chông	-5072
▁eckehart	-5073
▁rolandel	-5074
cả	-5075
▁ợ	-5076
."«	-5077
50:	-5078
hứa	-5079
thử	-5080
▁9,	-5081
ante	-5082
tron	-5083
xong	-5084
▁cưa	-5085
▁khỉ	-5086
xuyên	-5087
▁lừng	-5088
▁đặng	-5089
ssadin	-5090
lệ	-5091
yer	-5092
▁71	-5093
▁ay	-5094
▁tăc	-5095
trọng	-5096
▁nate	-5097
▁cyril	-5098
55	-5099
98	-5100
60:	-5101
bet	-5102
vis	-5103
▁dè	-5104
▁lả	-5105
▁bộp	-5106
▁xâu	-5107
isbet	-5108
▁30%,	-5109
▁toại	-5110
▁ayami	-5111
▁chánh	-5112
▁ayamitron	-5113
ic	-5114
20:	-5115
eus	-5116
▁gắn	-5117
▁đát	-5118
▁đắn	-5119
lương	-5120
▁phac	-5121
▁cloud	-5122
▁vướng	-5123
▁nisbet	-5124
kế	-5125
ụy	-5126
nim	-5127
tám	-5128
▁vồ	-5129
▁đẻ	-5130
▁114	-5131
▁mia	-5132
▁xăm	-5133
thiến	-5134
▁uông	-5135
▁500%,	-5136
▁mannim	-5137
ẻn	-5138
▁7.	-5139
▁tý	-5140
giới	-5141
mệnh	-5142
▁bru	-5143
▁lẻn	-5144
▁nặn	-5145
▁chem	-5146
▁nang	-5147
▁nguyễn	-5148
hì	-5149
tây	-5150
yến	-5151
▁xê	-5152
▁ắt	-5153
riam	-5154
song	-5155
▁126	-5156
▁méo	-5157
▁thà	-5158
▁cưng	-5159
▁davis	-5160
▁ngước	-5161
lemm	-5162
▁107	-5163
khổng	-5164
▁quắt	-5165
▁tiêp	-5166
lemming	-5167
23	-5168
eon	-5169
hồn	-5170
▁lù	-5171
▁cùm	-5172
▁tas	-5173
▁tít	-5174
......”	-5175
dy	-5176
hồ	-5177
▁91	-5178
essa	-5179
hoan	-5180
▁136	-5181
▁sẩy	-5182
▁trổ	-5183
▁đốm	-5184
▁đốp	-5185
▁troll	-5186
lư	-5187
emo	-5188
thả	-5189
▁cú	-5190
▁sấu	-5191
▁xát	-5192
▁kaio	-5193
▁dante	-5194
▁phịch	-5195
▁kassadin	-5196
mi	-5197
%),	-5198
80:	-5199
hôn	-5200
▁12.	-5201
▁127	-5202
▁bar	-5203
▁orc	-5204
▁diều	-5205
▁thúi	-5206
▁close	-5207
66	-5208
nào	-5209
hiếm	-5210
hoặc	-5211
▁gert	-5212
▁thắp	-5213
▁tasgo	-5214
2,	-5215
ght	-5216
ễnh	-5217
riel	-5218
shop	-5219
đoạn	-5220
▁cưu	-5221
▁mép	-5222
▁đìa	-5223
▁ngầu	-5224
▁sưởi	-5225
ve	-5226
ụa	-5227
800	-5228
▁12%	-5229
▁găm	-5230
▁sền	-5231
▁mống	-5232
▁nhỏm	-5233
▁thor	-5234
▁xiêu	-5235
tô	-5236
▁băt	-5237
▁cúng	-5238
▁phạn	-5239
bổn	-5240
lda	-5241
▁pm	-5242
▁(.)	-5243
▁132	-5244
▁bộn	-5245
▁cúc	-5246
▁gằn	-5247
▁sủa	-5248
▁tàm	-5249
▁giòn	-5250
▁gàng	-5251
▁niếp	-5252
▁rưỡi	-5253
▁thưc	-5254
▁trụy	-5255
▁luyên	-5256
▁quạnh	-5257
dĩ	-5258
ghê	-5259
qua	-5260
▁tẻ	-5261
gaki	-5262
▁137	-5263
▁rền	-5264
▁sha	-5265
tella	-5266
▁trẻo	-5267
▁richa	-5268
anagaki	-5269
▁raymond	-5270
99	-5271
000,	-5272
▁cis	-5273
▁ngả	-5274
▁ria	-5275
▁rơm	-5276
nhiệm	-5277
thăng	-5278
▁----	-5279
▁giụa	-5280
▁soạn	-5281
▁nghén	-5282
▁phoshop	-5283
67	-5284
sáu	-5285
liệt	-5286
▁103	-5287
▁dải	-5288
▁đăm	-5289
leigh	-5290
tonio	-5291
▁keep	-5292
▁ngán	-5293
▁chích	-5294
▁cisco	-5295
▁yanagaki	-5296
hóa	-5297
ngậm	-5298
▁viền	-5299
▁60000	-5300
14	-5301
17	-5302
sch	-5303
elon	-5304
viêm	-5305
▁32,	-5306
▁nôi	-5307
allie	-5308
▁miền	-5309
▁thổn	-5310
13	-5311
sơn	-5312
▁dũ	-5313
glas	-5314
pháp	-5315
▁115	-5316
▁dưc	-5317
▁lội	-5318
▁đuc	-5319
right	-5320
▁quải	-5321
▁rock	-5322
▁sành	-5323
trường	-5324
▁kisch	-5325
▁miriam	-5326
▁antonio	-5327
ros	-5328
▁my	-5329
▁re	-5330
▁sô	-5331
dịch	-5332
▁(13	-5333
▁122	-5334
▁768	-5335
▁nức	-5336
▁ríu	-5337
▁vao	-5338
emoth	-5339
▁kếch	-5340
▁nòng	-5341
▁phil	-5342
▁ganelon	-5343
lui	-5344
ngự	-5345
▁hũ	-5346
▁éo	-5347
chín	-5348
rren	-5349
▁nhão	-5350
bí	-5351
khô	-5352
đan	-5353
▁xò	-5354
tiết	-5355
▁60%	-5356
▁dìu	-5357
▁sưc	-5358
▁măng	-5359
▁200%,	-5360
▁thiềm	-5361
▁tuếch	-5362
▁hollis	-5363
▁sophia	-5364
▁behemoth	-5365
hu	-5366
gọi	-5367
rút	-5368
aman	-5369
trải	-5370
▁104	-5371
▁rệt	-5372
▁đua	-5373
▁trãi	-5374
▁nhiêm	-5375
mộ	-5376
bần	-5377
hạo	-5378
ướm	-5379
▁hơ	-5380
biểu	-5381
ngăn	-5382
▁dận	-5383
▁lứa	-5384
▁sục	-5385
▁anya	-5386
▁2.500	-5387
cứu	-5388
phó	-5389
res	-5390
quay	-5391
▁15%	-5392
▁270	-5393
▁80%	-5394
▁khoi	-5395
▁khoẻ	-5396
▁phàn	-5397
▁vanessa	-5398
kỵ	-5399
tà	-5400
hậu	-5401
▁rạ	-5402
diệt	-5403
▁cồn	-5404
▁xóc	-5405
▁chít	-5406
▁trịa	-5407
▁andre	-5408
▁black	-5409
▁douglas	-5410
▁vé	-5411
hiễu	-5412
▁123	-5413
▁bứt	-5414
▁dấy	-5415
▁ogu	-5416
▁rêu	-5417
trang	-5418
▁thuở	-5419
▁thỉu	-5420
▁hilda	-5421
▁trủng	-5422
▁stella	-5423
90	-5424
don	-5425
▁??	-5426
▁lự	-5427
tiệc	-5428
trốn	-5429
▁121	-5430
▁bât	-5431
de	-5432
up	-5433
ĩa	-5434
▁nắn	-5435
▁chấu	-5436
trưởng	-5437
▁chàng	-5438
bộ	-5439
st	-5440
êc	-5441
ợp	-5442
icu	-5443
ier	-5444
lty	-5445
▁lẹ	-5446
▁xứ	-5447
gười	-5448
tỉnh	-5449
đươc	-5450
▁dãi	-5451
phanh	-5452
▁chải	-5453
▁nhậm	-5454
iculty	-5455
▁45000	-5456
▁rayleigh	-5457
▁ừ	-5458
ion	-5459
tri	-5460
vier	-5461
▁124	-5462
▁còm	-5463
▁dụi	-5464
▁hằm	-5465
▁lụi	-5466
▁nhí	-5467
▁vòi	-5468
▁tris	-5469
▁burren	-5470
▁brandon	-5471
nửa	-5472
tho	-5473
ngụy	-5474
▁154	-5475
▁gus	-5476
▁nộn	-5477
▁xòe	-5478
▁ếch	-5479
sương	-5480
▁thầu	-5481
▁angela	-5482
▁shaman	-5483
21	-5484
?!”	-5485
cửa	-5486
tùy	-5487
▁bơ	-5488
giáo	-5489
ngao	-5490
đùng	-5491
▁134	-5492
▁143	-5493
▁bẹp	-5494
▁hác	-5495
▁soi	-5496
▁khac	-5497
▁alice	-5498
88	-5499
▁gu	-5500
▁ực	-5501
esly	-5502
oành	-5503
viên	-5504
▁bới	-5505
▁dãn	-5506
▁hớn	-5507
▁lẩu	-5508
▁xắc	-5509
▁10%,	-5510
▁200%	-5511
▁3200	-5512
▁chột	-5513
▁ngặt	-5514
▁xằng	-5515
▁cuông	-5516
▁chiêng	-5517
▁sevier	-5518
5,	-5519
hr	-5520
bảy	-5521
máu	-5522
▁it	-5523
nguy	-5524
tổng	-5525
▁117	-5526
▁hấu	-5527
▁kei	-5528
▁nàn	-5529
▁2500	-5530
▁phôi	-5531
▁thau	-5532
▁quãng	-5533
hủ	-5534
»,	-5535
hỏi	-5536
▁sỏ	-5537
▁204	-5538
▁384	-5539
▁hòi	-5540
▁lạm	-5541
▁mar	-5542
▁sứt	-5543
▁bướm	-5544
▁nạnh	-5545
▁thít	-5546
▁30000	-5547
▁myron	-5548
▁terry	-5549
▁100%),	-5550
cốt	-5551
hân	-5552
▁8.	-5553
,...	-5554
elen	-5555
giúp	-5556
giữa	-5557
mont	-5558
▁152	-5559
▁cắp	-5560
▁hoi	-5561
▁hot	-5562
▁men	-5563
▁khét	-5564
▁phay	-5565
▁phổi	-5566
▁5,000	-5567
▁gusta	-5568
▁baymont	-5569
56	-5570
dd	-5571
va	-5572
gic	-5573
mas	-5574
▁1!	-5575
▁bặc	-5576
▁huệ	-5577
▁nhả	-5578
hoành	-5579
▁6400	-5580
▁logic	-5581
▁manga	-5582
▁100000	-5583
▁chuồng	-5584
▁dungeon	-5585
▁"?	-5586
▁xế	-5587
inet	-5588
▁139	-5589
▁dlc	-5590
▁dẻo	-5591
▁mím	-5592
▁ráo	-5593
▁vạc	-5594
ldier	-5595
▁2400	-5596
▁quặc	-5597
▁vênh	-5598
▁300%,	-5599
▁caius	-5600
▁giăng	-5601
▁lesly	-5602
▁luster	-5603
▁soldier	-5604
11	-5605
khả	-5606
mạc	-5607
nhà	-5608
tor	-5609
õng	-5610
▁ôi	-5611
phản	-5612
tasy	-5613
▁han	-5614
▁80%,	-5615
▁đưng	-5616
antasy	-5617
▁augst	-5618
▁ngành	-5619
▁velen	-5620
▁aubrey	-5621
▁terran	-5622
▁sinisala	-5623
32	-5624
lăn	-5625
vẻn	-5626
▁(7	-5627
▁9.	-5628
arvi	-5629
lith	-5630
đích	-5631
▁106	-5632
▁20,	-5633
▁búp	-5634
▁gục	-5635
▁hợi	-5636
▁tốp	-5637
▁xáo	-5638
▁20%.	-5639
▁cuôi	-5640
▁ngổn	-5641
truyện	-5642
▁chuồn	-5643
.".	-5644
mạnh	-5645
nhục	-5646
▁146	-5647
▁560	-5648
▁cọp	-5649
▁kẹo	-5650
▁neo	-5651
▁nấc	-5652
▁oak	-5653
tranh	-5654
▁nhât	-5655
hài	-5656
học	-5657
tai	-5658
cách	-5659
phục	-5660
▁dàn	-5661
▁gọt	-5662
▁lãi	-5663
▁nhó	-5664
▁nớp	-5665
▁ren	-5666
▁1024	-5667
▁1080	-5668
38	-5669
amp	-5670
sai	-5671
vas	-5672
chậc	-5673
elli	-5674
phật	-5675
▁nơm	-5676
▁rợn	-5677
▁tou	-5678
▁behe	-5679
▁khất	-5680
▁mung	-5681
▁muỗi	-5682
▁mọng	-5683
▁poli	-5684
nhường	-5685
▁chòng	-5686
▁quinsa	-5687
▁shelli	-5688
24	-5689
36	-5690
yn	-5691
đào	-5692
đấu	-5693
▁nhử	-5694
▁chặp	-5695
▁quẳng	-5696
▁lilith	-5697
xì	-5698
tay	-5699
▁.,	-5700
▁đò	-5701
phạm	-5702
ther	-5703
trăm	-5704
▁131	-5705
▁156	-5706
▁167	-5707
▁40%	-5708
▁hoc	-5709
lượng	-5710
▁dang	-5711
rebekka	-5712
đủ	-5713
tạo	-5714
▁nệ	-5715
▁rĩ	-5716
khôi	-5717
ninh	-5718
▁cỗi	-5719
▁xéo	-5720
▁kara	-5721
▁00000	-5722
?!"	-5723
des	-5724
mắt	-5725
đôm	-5726
▁(5	-5727
▁bạ	-5728
▁113	-5729
▁133	-5730
▁147	-5731
▁cúp	-5732
▁lẩn	-5733
▁meo	-5734
▁mặn	-5735
▁vãi	-5736
▁4500	-5737
▁chuy	-5738
▁thâp	-5739
▁vồng	-5740
▁thuyên	-5741
cam	-5742
lat	-5743
vực	-5744
▁(0	-5745
▁gừ	-5746
▁lề	-5747
▁vở	-5748
▁xả	-5749
phân	-5750
▁119	-5751
▁mor	-5752
▁đât	-5753
▁đêu	-5754
bbard	-5755
khẳng	-5756
▁1960	-5757
▁ngai	-5758
▁nhen	-5759
▁buồng	-5760
▁rocky	-5761
▁savas	-5762
▁thoắt	-5763
▁oakres	-5764
.--------	-5765
vu	-5766
50,	-5767
tân	-5768
▁es	-5769
▁vạ	-5770
biến	-5771
giải	-5772
▁365	-5773
▁gâu	-5774
▁mào	-5775
▁toả	-5776
▁xào	-5777
▁1400	-5778
▁30%.	-5779
▁chuỳ	-5780
▁chát	-5781
▁nhụt	-5782
▁duriel	-5783
3,	-5784
35	-5785
id	-5786
ens	-5787
gat	-5788
hấp	-5789
tóc	-5790
▁2-	-5791
trầm	-5792
▁giỏ	-5793
▁hơp	-5794
▁sưa	-5795
▁hall	-5796
latter	-5797
▁truyên	-5798
om	-5799
300	-5800
▁br	-5801
nham	-5802
▁arc	-5803
▁bun	-5804
▁cào	-5805
▁por	-5806
▁đâp	-5807
thẳng	-5808
▁ngẩm	-5809
▁phớt	-5810
▁thot	-5811
▁cl	-5812
▁rú	-5813
▁tq	-5814
enca	-5815
▁(10	-5816
▁164	-5817
▁bưu	-5818
▁dốt	-5819
▁med	-5820
▁olo	-5821
▁rảo	-5822
▁usa	-5823
loria	-5824
▁phún	-5825
▁quit	-5826
▁chiêc	-5827
▁thuôc	-5828
▁millie	-5829
▁1960...	-5830
)(	-5831
52	-5832
▁ệ	-5833
85:	-5834
lee	-5835
one	-5836
▁»:	-5837
▁đơ	-5838
lvin	-5839
nhan	-5840
▁109	-5841
▁264	-5842
▁der	-5843
▁lõa	-5844
▁lợn	-5845
▁nạt	-5846
▁nọc	-5847
▁vức	-5848
▁maris	-5849
▁calvin	-5850
▁munger	-5851
▁ù	-5852
▁nư	-5853
▁uế	-5854
eiya	-5855
kiệt	-5856
ktor	-5857
▁116	-5858
▁giư	-5859
▁gũi	-5860
▁tac	-5861
▁trử	-5862
▁tảo	-5863
isabe	-5864
▁60%,	-5865
▁hals	-5866
▁loẹt	-5867
▁láng	-5868
▁them	-5869
▁tiễu	-5870
▁1,000	-5871
▁porusa	-5872
▁tylock	-5873
isabella	-5874
mã	-5875
87:	-5876
vào	-5877
▁dơ	-5878
▁hẹ	-5879
dung	-5880
▁cer	-5881
▁tuỷ	-5882
huyễn	-5883
▁hill	-5884
▁medusa	-5885
▁klatter	-5886
tê	-5887
ese	-5888
phệ	-5889
tòa	-5890
ấng	-5891
▁rè	-5892
kiếp	-5893
▁142	-5894
▁cac	-5895
▁uất	-5896
▁yar	-5897
▁ừng	-5898
▁bong	-5899
▁nhãi	-5900
▁rưng	-5901
▁xiên	-5902
▁ngoặt	-5903
▁thược	-5904
bỏ	-5905
tt	-5906
ủi	-5907
oạn	-5908
▁kè	-5909
esas	-5910
tuổi	-5911
đoán	-5912
▁gat	-5913
▁nút	-5914
▁trề	-5915
▁víu	-5916
atchi	-5917
linan	-5918
▁nhấm	-5919
▁rươi	-5920
▁2000(	-5921
▁lilia	-5922
▁isabella	-5923
82:	-5924
đổi	-5925
ngồi	-5926
nhàn	-5927
▁11.	-5928
▁151	-5929
▁157	-5930
▁kền	-5931
▁tâc	-5932
▁đom	-5933
▁muồi	-5934
▁ngáp	-5935
▁phẩy	-5936
▁ruen	-5937
▁baidu	-5938
▁galinan	-5939
54	-5940
ag	-5941
81:	-5942
88:	-5943
bớt	-5944
hợp	-5945
▁)]	-5946
▁3-	-5947
mượn	-5948
▁quạ	-5949
alter	-5950
▁hanh	-5951
▁ngoe	-5952
▁morse	-5953
▁talli	-5954
▁hubbard	-5955
nce	-5956
nội	-5957
ser	-5958
▁hê	-5959
thấp	-5960
tầng	-5961
▁lax	-5962
▁ngớ	-5963
▁núm	-5964
▁vèo	-5965
▁xỉa	-5966
▁chạc	-5967
▁khúm	-5968
▁nung	-5969
▁phia	-5970
amanda	-5971
▁vince	-5972
▁baigat	-5973
▁esther	-5974
16	-5975
47	-5976
84:	-5977
86:	-5978
89:	-5979
lâu	-5980
ngư	-5981
ared	-5982
hanh	-5983
mảnh	-5984
▁001	-5985
▁80.	-5986
▁phơ	-5987
▁tâp	-5988
buông	-5989
▁bruno	-5990
▁khoai	-5991
▁reese	-5992
▁theon	-5993
▁cuenca	-5994
▁ỉ	-5995
kar	-5996
nhỏ	-5997
thí	-5998
đội	-5999
ềnh	-6000
▁ứa	-6001
buổi	-6002
liga	-6003
▁car	-6004
▁cứt	-6005
▁léo	-6006
▁răm	-6007
thắng	-6008
▁aoli	-6009
▁ganh	-6010
▁quito	-6011
desliga	-6012
▁renesas	-6013
▁saatchi	-6014
▁bundesliga	-6015
đáp	-6016
...,	-6017
kiều	-6018
mand	-6019
▁145	-6020
▁hiu	-6021
▁kẽo	-6022
▁mọt	-6023
▁thò	-6024
▁rang	-6025
▁thọc	-6026
▁nhươc	-6027
83:	-6028
nga	-6029
phế	-6030
rời	-6031
▁đe	-6032
danh	-6033
elia	-6034
▁149	-6035
▁70%	-6036
▁băn	-6037
▁dem	-6038
▁nem	-6039
▁sea	-6040
▁đoá	-6041
▁ướp	-6042
thuận	-6043
▁"...	-6044
▁500,	-6045
▁khao	-6046
▁nịch	-6047
▁tâng	-6048
▁corot	-6049
70	-6050
yu	-6051
ăp	-6052
đề	-6053
eto	-6054
hành	-6055
truy	-6056
trâu	-6057
đoan	-6058
▁153	-6059
▁540	-6060
▁hám	-6061
▁luy	-6062
▁rết	-6063
▁vun	-6064
▁7500	-6065
▁tằng	-6066
▁quầng	-6067
▁armand	-6068
19	-6069
ỵt	-6070
báo	-6071
càn	-6072
khu	-6073
lte	-6074
▁vớ	-6075
▁xô	-6076
khâu	-6077
▁15,	-6078
▁90%	-6079
▁lõi	-6080
▁ngà	-6081
▁đĩa	-6082
llier	-6083
▁klee	-6084
▁rudy	-6085
▁trát	-6086
▁tuộc	-6087
chulte	-6088
chưởng	-6089
▁bonnie	-6090
▁derlei	-6091
45	-6092
kỷ	-6093
ôt	-6094
tào	-6095
đạt	-6096
▁sc	-6097
▁cữu	-6098
▁gởi	-6099
▁mói	-6100
erota	-6101
stone	-6102
▁tiệt	-6103
▁gióng	-6104
▁quỳnh	-6105
▁kerota	-6106
▁taobao	-6107
▁schulte	-6108
rận	-6109
sắc	-6110
thể	-6111
tra	-6112
▁[5	-6113
chal	-6114
chợt	-6115
luận	-6116
thảo	-6117
thẩm	-6118
▁840	-6119
▁lựu	-6120
▁nập	-6121
▁rủi	-6122
▁trứ	-6123
▁alger	-6124
▁schal	-6125
▁hubert	-6126
▁nghiện	-6127
sơ	-6128
tế	-6129
ợm	-6130
16:	-6131
18:	-6132
600	-6133
dok	-6134
sưu	-6135
ệch	-6136
▁dả	-6137
aron	-6138
esse	-6139
phàm	-6140
▁1."	-6141
▁kép	-6142
▁rắp	-6143
▁300%	-6144
▁40%,	-6145
▁chât	-6146
▁giun	-6147
▁xiếc	-6148
▁aaron	-6149
▁lanes	-6150
▁quint	-6151
▁hiesse	-6152
37	-6153
69	-6154
▁rì	-6155
▁ùm	-6156
dier	-6157
đoạt	-6158
▁nưa	-6159
▁sạt	-6160
▁trĩ	-6161
▁xõa	-6162
tướng	-6163
▁ngùi	-6164
▁nùng	-6165
▁collier	-6166
39	-6167
bà	-6168
hế	-6169
cốc	-6170
đắc	-6171
▁ad	-6172
▁dế	-6173
▁en	-6174
▁hệt	-6175
phòng	-6176
▁diễu	-6177
▁kiệu	-6178
▁marl	-6179
▁nhím	-6180
▁trằn	-6181
▁keira	-6182
▁kidok	-6183
độ	-6184
11:	-6185
12:	-6186
14:	-6187
17:	-6188
câu	-6189
ire	-6190
▁ừm	-6191
hiển	-6192
năng	-6193
rant	-6194
sống	-6195
trúc	-6196
viễn	-6197
▁165	-6198
▁80,	-6199
▁cạo	-6200
▁dằn	-6201
▁gập	-6202
▁hêt	-6203
▁lưa	-6204
▁net	-6205
▁rục	-6206
▁tui	-6207
▁tết	-6208
▁vưa	-6209
.....	-6210
chiếu	-6211
hướng	-6212
▁maia	-6213
▁đễnh	-6214
▁25000	-6215
▁group	-6216
▁nguội	-6217
▁phích	-6218
▁gloria	-6219
▁thomas	-6220
kg	-6221
lê	-6222
%)]	-6223
13:	-6224
96:	-6225
bas	-6226
▁01	-6227
kiến	-6228
muội	-6229
▁312	-6230
▁bện	-6231
lomon	-6232
quyền	-6233
thống	-6234
▁dông	-6235
▁giội	-6236
▁kais	-6237
▁rịch	-6238
▁skar	-6239
▁tiển	-6240
▁đich	-6241
▁tarot	-6242
▁royena	-6243
▁]......	-6244
bố	-6245
cư	-6246
15:	-6247
19:	-6248
thụ	-6249
til	-6250
đời	-6251
▁id	-6252
chịu	-6253
▁cấy	-6254
▁hản	-6255
▁luỵ	-6256
▁mền	-6257
▁vạm	-6258
▁chai	-6259
▁nhâm	-6260
▁nhải	-6261
▁1000,	-6262
▁800%,	-6263
▁laser	-6264
▁phung	-6265
▁soros	-6266
▁tours	-6267
▁milton	-6268
89	-6269
bi	-6270
mỹ	-6271
▁=	-6272
00%	-6273
91:	-6274
uck	-6275
đàm	-6276
▁đọ	-6277
dike	-6278
hiểu	-6279
orti	-6280
quái	-6281
▁giã	-6282
▁mía	-6283
▁ned	-6284
▁nãy	-6285
▁pay	-6286
▁sum	-6287
▁vằn	-6288
▁úng	-6289
thiết	-6290
▁khặc	-6291
▁nhin	-6292
▁nhặn	-6293
▁quẩy	-6294
▁thút	-6295
▁toét	-6296
▁vạng	-6297
▁1200,	-6298
▁6000(	-6299
▁chạng	-6300
▁payton	-6301
!?	-6302
)?	-6303
44	-6304
75	-6305
▁ố	-6306
."'	-6307
chú	-6308
dim	-6309
tàn	-6310
tóm	-6311
tấm	-6312
viện	-6313
▁18,	-6314
▁750	-6315
▁cậu	-6316
▁gil	-6317
▁hùm	-6318
▁lìa	-6319
▁lòa	-6320
▁lải	-6321
▁ngạ	-6322
▁barn	-6323
▁chồn	-6324
▁mùng	-6325
▁nice	-6326
▁ruhr	-6327
▁chếch	-6328
94:	-6329
hạy	-6330
hối	-6331
sco	-6332
tim	-6333
xảy	-6334
▁4:	-6335
▁bợ	-6336
nông	-6337
tiện	-6338
▁40,	-6339
▁520	-6340
▁khử	-6341
▁đực	-6342
▁nael	-6343
▁ngợm	-6344
▁nươc	-6345
▁rành	-6346
rndike	-6347
▁nuông	-6348
▁viếng	-6349
dimitka	-6350
▁durant	-6351
▁barnett	-6352
▁--------	-6353
▁thorndike	-6354
!!!	-6355
93:	-6356
nắm	-6357
ona	-6358
▁kĩ	-6359
▁tỵ	-6360
dũng	-6361
illy	-6362
▁lóc	-6363
▁ngỗ	-6364
▁xốt	-6365
▁khay	-6366
▁leto	-6367
▁rông	-6368
ampire	-6369
▁chang	-6370
▁khang	-6371
▁ngách	-6372
37:	-6373
95:	-6374
98:	-6375
quý	-6376
tru	-6377
▁cở	-6378
▁»]	-6379
nghi	-6380
rống	-6381
▁băm	-6382
▁róc	-6383
▁rạc	-6384
▁xấp	-6385
khủng	-6386
phiền	-6387
▁"100	-6388
▁400%	-6389
▁cồng	-6390
▁bướng	-6391
▁vampire	-6392
42	-6393
5.	-6394
?'	-6395
ei	-6396
33:	-6397
90:	-6398
92:	-6399
97:	-6400
99:	-6401
cộc	-6402
▁!.	-6403
▁xơ	-6404
chém	-6405
quốc	-6406
vượt	-6407
▁eul	-6408
▁mấp	-6409
▁sặc	-6410
▁thá	-6411
▁xịt	-6412
lorna	-6413
phảng	-6414
trịnh	-6415
▁200.	-6416
▁gọng	-6417
▁kềnh	-6418
▁ngõa	-6419
▁trạc	-6420
▁celia	-6421
▁robert	-6422
31:	-6423
bie	-6424
câm	-6425
giá	-6426
tha	-6427
▁ná	-6428
ayle	-6429
ield	-6430
miễn	-6431
ngưu	-6432
thúc	-6433
xông	-6434
▁5%,	-6435
▁nải	-6436
▁rèm	-6437
▁xỉu	-6438
▁đóm	-6439
ngoan	-6440
▁chòi	-6441
▁chổi	-6442
▁cóng	-6443
▁mela	-6444
ielding	-6445
34:	-6446
39:	-6447
bạo	-6448
gầm	-6449
hém	-6450
▁mề	-6451
than	-6452
vang	-6453
▁boo	-6454
▁biếu	-6455
▁chon	-6456
▁giậm	-6457
▁phập	-6458
▁thào	-6459
▁400%,	-6460
▁100,000	-6461
307	-6462
38:	-6463
52:	-6464
62:	-6465
arl	-6466
giả	-6467
iới	-6468
tức	-6469
▁ốp	-6470
lòng	-6471
rbas	-6472
▁loé	-6473
▁tỏi	-6474
▁9000	-6475
▁niêm	-6476
▁quít	-6477
▁thãi	-6478
▁chửng	-6479
▁kayle	-6480
▁roger	-6481
▁booker	-6482
▁purbas	-6483
28	-6484
xa	-6485
yd	-6486
ỷu	-6487
35:	-6488
cám	-6489
ity	-6490
ướn	-6491
khác	-6492
rard	-6493
thay	-6494
thức	-6495
▁99%	-6496
▁bìa	-6497
▁bít	-6498
▁bôc	-6499
▁lủi	-6500
▁xụi	-6501
▁5120	-6502
▁chéo	-6503
▁chỉa	-6504
▁eder	-6505
▁nháp	-6506
▁xước	-6507
▁(100%	-6508
▁khuỷu	-6509
▁ngoai	-6510
▁soạng	-6511
▁chasco	-6512
▁gerrard	-6513
lẽ	-6514
32:	-6515
56:	-6516
háy	-6517
diễm	-6518
quắc	-6519
▁380	-6520
▁cụp	-6521
▁pin	-6522
▁the	-6523
▁vàn	-6524
▁vôi	-6525
▁10%.	-6526
▁7000	-6527
▁báng	-6528
▁chùa	-6529
▁city	-6530
▁1280(	-6531
▁trũng	-6532
▁cooktor	-6533
62	-6534
đu	-6535
67:	-6536
ack	-6537
ere	-6538
phủ	-6539
▁"1	-6540
▁-,	-6541
▁ló	-6542
▁ốn	-6543
huấn	-6544
khẩu	-6545
rian	-6546
▁230	-6547
▁24,	-6548
▁ing	-6549
▁lẻo	-6550
▁nêu	-6551
▁săc	-6552
▁vât	-6553
▁đác	-6554
▁120,	-6555
▁cach	-6556
▁kidd	-6557
▁muốt	-6558
▁barro	-6559
▁nhuần	-6560
▁xuyến	-6561
▁chuyết	-6562
bồ	-6563
xe	-6564
22:	-6565
65:	-6566
già	-6567
ken	-6568
san	-6569
trả	-6570
▁04	-6571
▁hè	-6572
▁on	-6573
bước	-6574
erso	-6575
loyd	-6576
trộm	-6577
▁thừ	-6578
▁váo	-6579
▁xêp	-6580
▁cars	-6581
▁khịt	-6582
▁phấp	-6583
▁rick	-6584
chuyển	-6585
ersoll	-6586
▁grave	-6587
▁guard	-6588
▁phủng	-6589
65	-6590
87	-6591
hộ	-6592
nô	-6593
tả	-6594
63:	-6595
68:	-6596
73:	-6597
77:	-6598
ldo	-6599
mạt	-6600
đau	-6601
▁"[	-6602
hiệu	-6603
main	-6604
thon	-6605
▁0(4	-6606
▁búi	-6607
▁sờn	-6608
▁vại	-6609
chiêu	-6610
▁khứu	-6611
▁mars	-6612
▁vươt	-6613
▁3.500	-6614
▁ghềnh	-6615
▁khoăn	-6616
2)	-6617
36:	-6618
51:	-6619
70:	-6620
71:	-6621
75:	-6622
ươm	-6623
llen	-6624
quên	-6625
▁190	-6626
▁cli	-6627
▁iii	-6628
▁lin	-6629
▁sco	-6630
▁túm	-6631
▁vay	-6632
▁via	-6633
▁vẹt	-6634
khinh	-6635
▁800,	-6636
▁hell	-6637
▁brian	-6638
▁khiêp	-6639
▁suông	-6640
gerburg	-6641
▁35.000	-6642
▁cooldo	-6643
▁ingersoll	-6644
34	-6645
nộ	-6646
ỏm	-6647
55:	-6648
57:	-6649
64:	-6650
hơi	-6651
ses	-6652
tấn	-6653
biện	-6654
diệu	-6655
eili	-6656
hạng	-6657
nước	-6658
▁224	-6659
▁bịa	-6660
▁cáu	-6661
▁kip	-6662
▁sên	-6663
▁tie	-6664
▁đôn	-6665
phóng	-6666
ulson	-6667
▁1100	-6668
▁bươc	-6669
▁chảo	-6670
▁quẫn	-6671
▁tuột	-6672
▁moses	-6673
▁scott	-6674
▁xoảng	-6675
▁tiegerburg	-6676
▁ụ	-6677
24:	-6678
58:	-6679
59:	-6680
69:	-6681
72:	-6682
74:	-6683
aro	-6684
quét	-6685
quản	-6686
ruid	-6687
táng	-6688
▁cổn	-6689
▁lốm	-6690
▁quở	-6691
▁sỏa	-6692
▁tăn	-6693
▁veo	-6694
30760	-6695
trông	-6696
▁101.	-6697
▁200,	-6698
▁500.	-6699
▁60%.	-6700
▁trùy	-6701
▁2000,	-6702
▁click	-6703
▁druid	-6704
▁huyện	-6705
▁sưởng	-6706
▁kailan	-6707
▁carsley	-6708
▁moulson	-6709
▁00130760	-6710
============	-6711
8.	-6712
hy	-6713
(1)	-6714
54:	-6715
61:	-6716
66:	-6717
76:	-6718
78:	-6719
hội	-6720
tọa	-6721
▁hú	-6722
▁ps	-6723
anni	-6724
como	-6725
emar	-6726
nold	-6727
▁bac	-6728
▁cen	-6729
▁quỵ	-6730
▁rao	-6731
▁rán	-6732
▁rốn	-6733
▁sấy	-6734
▁sồi	-6735
vanni	-6736
▁chao	-6737
▁gray	-6738
▁liệm	-6739
▁nico	-6740
chương	-6741
▁3,000	-6742
▁bruce	-6743
▁chững	-6744
▁deere	-6745
▁haner	-6746
▁arnold	-6747
72	-6748
53:	-6749
79:	-6750
quỳ	-6751
bang	-6752
hỏng	-6753
tĩnh	-6754
vada	-6755
đuổi	-6756
▁20.	-6757
▁ath	-6758
▁cạc	-6759
▁cật	-6760
▁dầm	-6761
▁hun	-6762
▁nhứ	-6763
▁nới	-6764
▁sụt	-6765
khanh	-6766
timet	-6767
▁320,	-6768
▁buội	-6769
▁diệc	-6770
▁giòi	-6771
▁khía	-6772
▁mướn	-6773
▁nhẹp	-6774
▁xich	-6775
▁20,000	-6776
▁athena	-6777
▁sacomo	-6778
▁centimet	-6779
▁0013076067	-6780
)"	-6781
31	-6782
82	-6783
kỹ	-6784
25:	-6785
lựa	-6786
móa	-6787
▁lể	-6788
kích	-6789
▁1,5	-6790
▁666	-6791
▁dát	-6792
▁dạc	-6793
▁lẹt	-6794
short	-6795
▁hoay	-6796
▁logo	-6797
▁trĩu	-6798
▁300%.	-6799
▁khuẩn	-6800
▁nguậy	-6801
▁khuyến	-6802
85	-6803
ak	-6804
cỗ	-6805
dễ	-6806
26:	-6807
27:	-6808
28:	-6809
29:	-6810
hủy	-6811
log	-6812
toà	-6813
vết	-6814
▁gô	-6815
▁he	-6816
▁mớ	-6817
chút	-6818
erro	-6819
hona	-6820
inus	-6821
oney	-6822
tịnh	-6823
▁260	-6824
▁dìm	-6825
tránh	-6826
▁129,	-6827
▁giay	-6828
▁nhòm	-6829
▁rình	-6830
▁siri	-6831
▁xếch	-6832
chuyên	-6833
▁bella	-6834
▁giovanni	-6835
▁longinus	-6836
ut	-6837
43:	-6838
bầu	-6839
vin	-6840
đâu	-6841
▁yy	-6842
kiểm	-6843
niệm	-6844
quận	-6845
▁22,	-6846
▁330	-6847
▁phè	-6848
▁sat	-6849
▁sít	-6850
▁xốp	-6851
.----	-6852
thony	-6853
titan	-6854
xương	-6855
▁5%),	-6856
▁bênh	-6857
▁dõng	-6858
▁kham	-6859
▁lino	-6860
▁nami	-6861
▁toạc	-6862
iathan	-6863
▁1000%,	-6864
▁marsha	-6865
▁ngoảnh	-6866
▁rooney	-6867
▁anthony	-6868
▁leviathan	-6869
27	-6870
33	-6871
96	-6872
dự	-6873
10.	-6874
cây	-6875
ene	-6876
nhu	-6877
red	-6878
tận	-6879
▁dy	-6880
▁iq	-6881
▁kg	-6882
▁oc	-6883
▁qq	-6884
hàng	-6885
iela	-6886
kael	-6887
nghị	-6888
▁005	-6889
▁16,	-6890
▁550	-6891
▁cât	-6892
▁cọt	-6893
▁lon	-6894
▁lộp	-6895
▁rứt	-6896
▁sán	-6897
▁tuc	-6898
miệng	-6899
ombie	-6900
thích	-6901
thỉnh	-6902
▁150%	-6903
▁găng	-6904
▁loay	-6905
tilene	-6906
▁garau	-6907
▁shiela	-6908
▁adeline	-6909
▁hammond	-6910
21:	-6911
23:	-6912
41:	-6913
42:	-6914
47:	-6915
48:	-6916
?"«	-6917
khư	-6918
phổ	-6919
tầm	-6920
▁ói	-6921
leng	-6922
thừa	-6923
▁10!	-6924
▁288	-6925
▁90,	-6926
▁chô	-6927
▁gột	-6928
▁hâu	-6929
▁hến	-6930
▁kem	-6931
▁láp	-6932
▁quẽ	-6933
▁rần	-6934
▁»?"	-6935
▁bode	-6936
▁hắng	-6937
▁kerr	-6938
▁lằng	-6939
▁mướp	-6940
▁dylan	-6941
▁leona	-6942
instone	-6943
▁parker	-6944
▁antilene	-6945
!",	-6946
49:	-6947
700	-6948
thị	-6949
▁(6	-6950
▁5:	-6951
▁ny	-6952
▁tè	-6953
▁úc	-6954
bích	-6955
rượu	-6956
sách	-6957
sáng	-6958
đằng	-6959
▁35%	-6960
▁hằn	-6961
▁mút	-6962
▁mơn	-6963
▁năn	-6964
▁xẹp	-6965
▁500%	-6966
▁dỏng	-6967
▁khẩy	-6968
▁lêch	-6969
▁nấng	-6970
▁rhona	-6971
▁truồng	-6972
'.	-6973
2.	-6974
8,	-6975
86	-6976
hà	-6977
họ	-6978
5%,	-6979
chế	-6980
dou	-6981
hữu	-6982
lừa	-6983
rồi	-6984
sàn	-6985
ayer	-6986
ayne	-6987
cánh	-6988
hite	-6989
iter	-6990
khúc	-6991
kình	-6992
luôn	-6993
ppel	-6994
trảm	-6995
▁(2)	-6996
▁11,	-6997
▁290	-6998
▁390	-6999
▁hột	-7000
▁tât	-7001
▁tỉa	-7002
▁xùy	-7003
▁xối	-7004
phụng	-7005
▁chắt	-7006
▁moun	-7007
▁nhẩm	-7008
▁ních	-7009
▁phao	-7010
▁xẻng	-7011
estern	-7012
lomons	-7013
▁1500,	-7014
▁atley	-7015
▁khiếm	-7016
▁mương	-7017
▁thich	-7018
▁triếp	-7019
▁xoang	-7020
▁logout	-7021
▁online	-7022
sinisala	-7023
▁brinstone	-7024
1.	-7025
95	-7026
ọe	-7027
44:	-7028
45:	-7029
ari	-7030
eis	-7031
era	-7032
gió	-7033
giờ	-7034
mua	-7035
trẻ	-7036
▁4-	-7037
▁mm	-7038
kính	-7039
ling	-7040
thao	-7041
thar	-7042
thâm	-7043
tiễn	-7044
▁40.	-7045
▁60,	-7046
▁mui	-7047
▁sấn	-7048
▁uấn	-7049
ebeth	-7050
eiser	-7051
ngưng	-7052
remar	-7053
tượng	-7054
▁0(18	-7055
▁0(55	-7056
▁cuôn	-7057
▁khoé	-7058
▁loảng	-7059
▁lucas	-7060
▁vadier	-7061
▁chivada	-7062
,"	-7063
48	-7064
ix	-7065
mơ	-7066
kém	-7067
mer	-7068
đên	-7069
đầy	-7070
▁!”	-7071
▁'.	-7072
▁ùn	-7073
▁ập	-7074
▁ỏi	-7075
arda	-7076
ning	-7077
▁440	-7078
▁chì	-7079
▁côt	-7080
▁mồn	-7081
▁nêm	-7082
▁rìa	-7083
tasha	-7084
trùng	-7085
▁300,	-7086
▁5600	-7087
▁chẹt	-7088
▁dath	-7089
▁lâng	-7090
▁trọi	-7091
▁ngoạm	-7092
tharion	-7093
▁-------	-7094
▁natasha	-7095
▁galomons	-7096
▁neltharion	-7097
.,	-7098
lộ	-7099
mả	-7100
tụ	-7101
00:	-7102
lis	-7103
mất	-7104
sel	-7105
đảo	-7106
dược	-7107
gard	-7108
soạt	-7109
vãng	-7110
▁(1)	-7111
▁30.	-7112
▁70,	-7113
▁hat	-7114
▁nực	-7115
▁rỏi	-7116
▁trọ	-7117
▁yam	-7118
▁150,	-7119
▁70%,	-7120
▁cẳng	-7121
▁lọng	-7122
▁troc	-7123
▁chảnh	-7124
▁lager	-7125
▁asgard	-7126
mị	-7127
vù	-7128
46:	-7129
chó	-7130
cân	-7131
cắt	-7132
giữ	-7133
xùy	-7134
▁"5	-7135
▁(?	-7136
▁xỏ	-7137
▁»?	-7138
chấn	-7139
hung	-7140
lạch	-7141
rosh	-7142
tích	-7143
vòng	-7144
xung	-7145
đăng	-7146
▁5%.	-7147
▁999	-7148
▁bro	-7149
▁cvt	-7150
▁hấn	-7151
▁kêt	-7152
▁múc	-7153
▁rut	-7154
dường	-7155
nhiếp	-7156
tuyền	-7157
▁0(15	-7158
▁cais	-7159
▁gatô	-7160
▁giặt	-7161
▁rađa	-7162
aubrey	-7163
▁slarda	-7164
))	-7165
22	-7166
7,	-7167
tí	-7168
ẽo	-7169
!?”	-7170
tội	-7171
van	-7172
với	-7173
đôi	-7174
ểng	-7175
cười	-7176
ngắn	-7177
điên	-7178
▁340	-7179
▁4.5	-7180
▁nép	-7181
▁tày	-7182
▁uân	-7183
▁vip	-7184
chủng	-7185
deric	-7186
nhiễm	-7187
thiêu	-7188
▁15%.	-7189
▁casa	-7190
▁hóng	-7191
khuyết	-7192
▁susan	-7193
▁brayer	-7194
▁hirosh	-7195
▁gatling	-7196
▁----------	-7197
76	-7198
ap	-7199
ge	-7200
vĩ	-7201
xi	-7202
lai	-7203
tín	-7204
đốt	-7205
▁(8	-7206
▁xó	-7207
eter	-7208
ngẫu	-7209
race	-7210
thối	-7211
▁410	-7212
▁60.	-7213
▁bón	-7214
▁bịp	-7215
▁gờm	-7216
▁hen	-7217
▁níu	-7218
▁sột	-7219
▁tép	-7220
borah	-7221
chứng	-7222
▁40%.	-7223
▁clay	-7224
▁kael	-7225
▁phụt	-7226
▁quệt	-7227
▁200(5	-7228
▁600%,	-7229
▁griết	-7230
▁yaren	-7231
rederic	-7232
▁1280(1	-7233
▁sumari	-7234
▁deborah	-7235
dougherty	-7236
74	-7237
ky	-7238
ni	-7239
đỗ	-7240
5%.	-7241
bức	-7242
mãi	-7243
rob	-7244
sâu	-7245
▁ap	-7246
▁ed	-7247
▁ok	-7248
▁vs	-7249
▁ốm	-7250
lang	-7251
đoàn	-7252
▁cro	-7253
▁huý	-7254
▁hờn	-7255
▁mic	-7256
▁sém	-7257
vince	-7258
▁"800	-7259
▁haka	-7260
▁kika	-7261
▁miều	-7262
▁nhái	-7263
▁nhóc	-7264
▁rạch	-7265
▁3000,	-7266
▁ansel	-7267
▁chệch	-7268
traslia	-7269
▁toptraslia	-7270
81	-7271
84	-7272
mễ	-7273
ol	-7274
sp	-7275
bại	-7276
hul	-7277
luc	-7278
mưa	-7279
nel	-7280
rue	-7281
sắp	-7282
▁"3	-7283
▁?”	-7284
▁ne	-7285
▁tm	-7286
chim	-7287
chìa	-7288
giáp	-7289
liều	-7290
phái	-7291
rừng	-7292
▁0%.	-7293
▁310	-7294
▁dum	-7295
▁gna	-7296
▁nhỉ	-7297
▁val	-7298
▁)(1)	-7299
▁2700	-7300
▁diểm	-7301
▁hoăc	-7302
▁ngáy	-7303
nelson	-7304
▁carue	-7305
▁halsan	-7306
hệ	-7307
ns	-7308
oh	-7309
ts	-7310
xạ	-7311
hèn	-7312
rus	-7313
trò	-7314
▁2%	-7315
1%),	-7316
avya	-7317
kịch	-7318
nett	-7319
ngực	-7320
quen	-7321
rank	-7322
định	-7323
▁1%,	-7324
▁2%,	-7325
▁2.5	-7326
▁880	-7327
▁ami	-7328
▁ben	-7329
▁bùm	-7330
▁cụm	-7331
▁hăc	-7332
▁mẩn	-7333
▁ner	-7334
▁rub	-7335
▁trố	-7336
▁voc	-7337
▁yal	-7338
ander	-7339
beate	-7340
lưỡng	-7341
ngừng	-7342
quảng	-7343
triều	-7344
▁80%.	-7345
▁9999	-7346
▁chùi	-7347
▁diêp	-7348
▁hích	-7349
▁iman	-7350
▁lảnh	-7351
▁nhựa	-7352
▁thạc	-7353
▁đĩnh	-7354
▁2200,	-7355
▁allen	-7356
▁chuối	-7357
▁loãng	-7358
▁ngoái	-7359
▁nhộng	-7360
▁trịch	-7361
▁yamana	-7362
▁800.000	-7363
71	-7364
78	-7365
???	-7366
dos	-7367
hôi	-7368
kéo	-7369
lic	-7370
nạp	-7371
rex	-7372
tửu	-7373
▁5-	-7374
▁bg	-7375
▁bự	-7376
▁nv	-7377
▁rị	-7378
▁rổ	-7379
1000	-7380
ader	-7381
loạn	-7382
luân	-7383
thic	-7384
trác	-7385
▁"?"	-7386
▁0%,	-7387
▁15.	-7388
▁cui	-7389
▁cảo	-7390
▁dùi	-7391
▁kíp	-7392
▁lăc	-7393
▁xoe	-7394
▁đôm	-7395
▁dean	-7396
▁giậu	-7397
▁gươm	-7398
▁hina	-7399
▁nhằn	-7400
▁ruổi	-7401
▁trội	-7402
thường	-7403
truyen	-7404
▁durex	-7405
▁gross	-7406
▁kanda	-7407
▁khoét	-7408
▁30,000	-7409
▁baader	-7410
▁carter	-7411
▁gothic	-7412
erroburg	-7413
94	-7414
cd	-7415
400	-7416
hãy	-7417
vài	-7418
▁0%	-7419
▁sò	-7420
dras	-7421
ging	-7422
khuy	-7423
khắp	-7424
nhóm	-7425
nhắc	-7426
niết	-7427
ppie	-7428
thêm	-7429
trắc	-7430
xuỵt	-7431
▁2.7	-7432
▁225	-7433
▁25.	-7434
▁bèo	-7435
▁isa	-7436
▁rịn	-7437
apdos	-7438
quyết	-7439
▁1050	-7440
▁800.	-7441
▁chài	-7442
▁chẩm	-7443
▁chẽn	-7444
▁logy	-7445
▁nghẽ	-7446
▁nhạp	-7447
roblog	-7448
thuyền	-7449
▁700%,	-7450
▁amiri	-7451
▁chuốc	-7452
▁hoăng	-7453
▁hillel	-7454
▁yuppie	-7455
roblogging	-7456
)-	-7457
63	-7458
mm	-7459
mo	-7460
50%	-7461
tav	-7462
trợ	-7463
vất	-7464
đứa	-7465
▁sỡ	-7466
10%.	-7467
buồn	-7468
gian	-7469
hùng	-7470
liêu	-7471
nhật	-7472
tằng	-7473
▁460	-7474
▁]."	-7475
▁còi	-7476
▁lùm	-7477
▁mốc	-7478
▁oản	-7479
▁trê	-7480
nghĩa	-7481
thằng	-7482
▁)(2)	-7483
▁150.	-7484
▁1700	-7485
▁chùn	-7486
▁ngoi	-7487
▁quăn	-7488
▁sũng	-7489
▁xach	-7490
andere	-7491
khuynh	-7492
▁ngoẹo	-7493
▁silic	-7494
▁......	-7495
▁50,000	-7496
▁yandere	-7497
aha	-7498
cựu	-7499
kẹt	-7500
sky	-7501
thô	-7502
tto	-7503
tổn	-7504
▁vú	-7505
▁út	-7506
▁ơi	-7507
▁ạt	-7508
ello	-7509
mình	-7510
tter	-7511
▁252	-7512
▁hói	-7513
▁lởm	-7514
▁nhọ	-7515
▁nom	-7516
▁que	-7517
▁sủi	-7518
▁xúm	-7519
inley	-7520
lisis	-7521
tavio	-7522
thính	-7523
▁6666	-7524
▁bart	-7525
▁giẫy	-7526
▁miết	-7527
▁ngăm	-7528
▁trản	-7529
▁5000,	-7530
▁giềng	-7531
▁husky	-7532
▁khước	-7533
▁triêm	-7534
▁andras	-7535
▁mappel	-7536
▁octavio	-7537
▁microblogging	-7538
3.	-7539
92	-7540
ase	-7541
coo	-7542
cát	-7543
hầu	-7544
kha	-7545
lận	-7546
max	-7547
mor	-7548
non	-7549
thề	-7550
tro	-7551
đặt	-7552
▁"2	-7553
▁cd	-7554
▁mủ	-7555
▁tã	-7556
▁up	-7557
▁uý	-7558
▁âp	-7559
▁ọe	-7560
giây	-7561
lệnh	-7562
phẩm	-7563
quần	-7564
▁"10	-7565
▁008	-7566
▁17,	-7567
▁2.1	-7568
▁21,	-7569
▁680	-7570
▁dis	-7571
▁gút	-7572
▁lỏa	-7573
▁nai	-7574
▁nhé	-7575
▁sùi	-7576
▁von	-7577
▁yển	-7578
ronos	-7579
xuống	-7580
▁0(17	-7581
▁0...	-7582
▁cain	-7583
▁karl	-7584
▁luồn	-7585
▁ngão	-7586
▁nhòa	-7587
▁nhạn	-7588
▁phèo	-7589
▁toác	-7590
▁10%),	-7591
▁75000	-7592
▁orson	-7593
▁500000	-7594
▁chronos	-7595
!'	-7596
5%	-7597
ac	-7598
lẻ	-7599
lễ	-7600
lỗ	-7601
sh	-7602
ur	-7603
bôn	-7604
bắn	-7605
hòa	-7606
▁)?	-7607
▁2!	-7608
▁bụ	-7609
100%	-7610
dòng	-7611
ease	-7612
giai	-7613
nghỉ	-7614
thải	-7615
trái	-7616
tàng	-7617
▁(11	-7618
▁14,	-7619
▁370	-7620
▁650	-7621
▁bục	-7622
▁cót	-7623
▁đăt	-7624
▁đơi	-7625
nstri	-7626
thoại	-7627
thoải	-7628
thình	-7629
▁210.	-7630
▁cheo	-7631
▁chom	-7632
▁gièm	-7633
▁luci	-7634
▁nhay	-7635
▁sòng	-7636
▁sệch	-7637
▁thóc	-7638
▁thọt	-7639
nghiệt	-7640
▁400%.	-7641
▁keith	-7642
▁khoắn	-7643
▁tello	-7644
▁bartle	-7645
▁chường	-7646
▁horace	-7647
nstrider	-7648
▁150.000	-7649
▁sunstrider	-7650
!)	-7651
73	-7652
93	-7653
dã	-7654
iả	-7655
đà	-7656
80%	-7657
hạt	-7658
nhẹ	-7659
ohn	-7660
tmd	-7661
trí	-7662
▁6!	-7663
▁bủ	-7664
▁iv	-7665
▁mõ	-7666
▁rù	-7667
▁sộ	-7668
biên	-7669
cuộc	-7670
diễn	-7671
dong	-7672
rane	-7673
reen	-7674
toái	-7675
điêu	-7676
▁.."	-7677
▁18.	-7678
▁307	-7679
▁50.	-7680
▁bua	-7681
▁bêu	-7682
▁cầy	-7683
▁dấm	-7684
▁dột	-7685
▁eve	-7686
▁sảo	-7687
▁tum	-7688
▁yak	-7689
chênh	-7690
▁0%)]	-7691
▁5400	-7692
▁640(	-7693
▁khêu	-7694
▁meng	-7695
▁ngoc	-7696
▁tễnh	-7697
▁đũng	-7698
nghiêm	-7699
▁000%,	-7700
▁hodge	-7701
▁isaac	-7702
▁khùng	-7703
▁lvmax	-7704
ingdong	-7705
▁netease	-7706
4.	-7707
sn	-7708
900	-7709
cục	-7710
eng	-7711
hen	-7712
hạn	-7713
lag	-7714
yle	-7715
đẹp	-7716
▁3%	-7717
▁lè	-7718
15%.	-7719
bóng	-7720
doãn	-7721
giác	-7722
hiền	-7723
khải	-7724
lãng	-7725
phúc	-7726
tịch	-7727
đổng	-7728
▁215	-7729
▁216	-7730
▁bấp	-7731
▁dạn	-7732
▁lim	-7733
▁mứt	-7734
▁sto	-7735
chàng	-7736
▁1%),	-7737
▁chẩn	-7738
▁hoản	-7739
▁loda	-7740
▁nhẽo	-7741
▁thẹo	-7742
▁10240	-7743
▁4,000	-7744
▁nguôn	-7745
▁quýnh	-7746
▁slack	-7747
▁1200%,	-7748
▁15,000	-7749
▁screen	-7750
▁thiêng	-7751
7.	-7752
lá	-7753
ớc	-7754
dục	-7755
eri	-7756
hâm	-7757
kêu	-7758
lti	-7759
lầu	-7760
môn	-7761
mũi	-7762
núi	-7763
nằm	-7764
tập	-7765
▁dề	-7766
▁lọ	-7767
▁uỷ	-7768
10%,	-7769
aill	-7770
gora	-7771
khắc	-7772
xanh	-7773
▁!!!	-7774
▁1%.	-7775
▁1,2	-7776
▁236	-7777
▁36,	-7778
▁bgm	-7779
▁bậm	-7780
▁gắp	-7781
▁hậm	-7782
▁luỹ	-7783
▁lọn	-7784
▁nán	-7785
▁nốt	-7786
▁săp	-7787
▁thè	-7788
▁têu	-7789
▁vát	-7790
pheus	-7791
thiền	-7792
▁220,	-7793
▁90%,	-7794
▁chũi	-7795
▁cuội	-7796
▁hiết	-7797
▁khập	-7798
▁lạng	-7799
▁tiần	-7800
cheron	-7801
▁chiểu	-7802
▁thiêt	-7803
▁thuớc	-7804
dragora	-7805
▁40,000	-7806
▁bennett	-7807
.---------	-7808
26	-7809
41	-7810
mê	-7811
ví	-7812
▁ứ	-7813
!".	-7814
55.	-7815
bay	-7816
ble	-7817
bác	-7818
bồi	-7819
lốp	-7820
mây	-7821
món	-7822
nox	-7823
xấu	-7824
▁4!	-7825
khục	-7826
trọn	-7827
▁242	-7828
▁25,	-7829
▁75%	-7830
▁80(	-7831
▁990	-7832
▁chừ	-7833
▁hão	-7834
▁liu	-7835
▁moc	-7836
▁rạt	-7837
▁đun	-7838
chống	-7839
thiếp	-7840
▁120.	-7841
▁1440	-7842
▁andy	-7843
▁chan	-7844
▁elle	-7845
▁giup	-7846
▁hãnh	-7847
▁loli	-7848
▁nhón	-7849
▁nong	-7850
▁thăn	-7851
▁toản	-7852
▁trồi	-7853
▁tãng	-7854
▁1000%	-7855
▁aurane	-7856
▁khuông	-7857
▁algernon	-7858
▁marshall	-7859
▁mandragora	-7860
1!	-7861
4,	-7862
6.	-7863
eb	-7864
ui	-7865
xử	-7866
».	-7867
20,	-7868
bạn	-7869
cai	-7870
dam	-7871
nck	-7872
phí	-7873
râu	-7874
tấu	-7875
xuy	-7876
▁bú	-7877
▁rả	-7878
alud	-7879
chất	-7880
rens	-7881
▁1.1	-7882
▁19.	-7883
▁409	-7884
▁850	-7885
▁bết	-7886
▁bủn	-7887
▁cộp	-7888
▁hom	-7889
▁măc	-7890
▁mởn	-7891
▁mụn	-7892
▁sạc	-7893
▁tel	-7894
▁xoi	-7895
▁xìu	-7896
▁áng	-7897
erica	-7898
henai	-7899
thuần	-7900
▁5500	-7901
▁chởm	-7902
▁duke	-7903
▁dươi	-7904
▁kedo	-7905
▁nhép	-7906
▁quẹo	-7907
▁thui	-7908
▁thìa	-7909
aludin	-7910
▁"100.	-7911
▁1,500	-7912
▁9,000	-7913
▁phộng	-7914
▁palmer	-7915
▁chester	-7916
▁orpheus	-7917
▁screensho	-7918
lữ	-7919
ot	-7920
tố	-7921
10%	-7922
ars	-7923
kay	-7924
ral	-7925
rud	-7926
tuo	-7927
tác	-7928
vội	-7929
xếp	-7930
đón	-7931
▁3!	-7932
▁]!	-7933
▁lõ	-7934
▁nẻ	-7935
▁om	-7936
▁ỉu	-7937
arou	-7938
hằng	-7939
mộng	-7940
ngâm	-7941
nhập	-7942
tain	-7943
đóng	-7944
▁185	-7945
▁5.1	-7946
▁cla	-7947
▁mâp	-7948
▁mửa	-7949
▁quẻ	-7950
▁toe	-7951
▁vía	-7952
▁vót	-7953
▁xít	-7954
▁đày	-7955
quách	-7956
triệt	-7957
▁15%,	-7958
▁400,	-7959
▁chồi	-7960
▁chội	-7961
▁giàn	-7962
▁hiêm	-7963
▁luke	-7964
▁mass	-7965
▁phím	-7966
▁phẫu	-7967
▁rach	-7968
vadier	-7969
▁1000.	-7970
▁11000	-7971
▁13000	-7972
▁3600,	-7973
▁6,000	-7974
▁harud	-7975
▁muống	-7976
▁ngấng	-7977
▁phỗng	-7978
▁thuât	-7979
▁uriel	-7980
cooktor	-7981
kayarou	-7982
▁250000	-7983
▁barker	-7984
▁lennox	-7985
▁mộngtu	-7986
▁sợthân	-7987
▁tiếcthề	-7988
▁trờimưa	-7989
▁tơithân	-7990
▁quanthái	-7991
57	-7992
68	-7993
91	-7994
cá	-7995
hổ	-7996
tỳ	-7997
age	-7998
att	-7999
cáo	-8000
sic	-8001
súc	-8002
▁ep	-8003
▁kỉ	-8004
▁rở	-8005
▁ổi	-8006
20%.	-8007
khảo	-8008
ngạo	-8009
thịt	-8010
▁1.8	-8011
▁2%.	-8012
▁205	-8013
▁235	-8014
▁3.5	-8015
▁396	-8016
▁412	-8017
▁45%	-8018
▁470	-8019
▁ann	-8020
▁goi	-8021
▁log	-8022
▁lét	-8023
▁mão	-8024
▁ngỏ	-8025
▁toc	-8026
▁tía	-8027
▁vưc	-8028
10000	-8029
chiêm	-8030
inmas	-8031
quyển	-8032
tropy	-8033
tường	-8034
▁160,	-8035
▁3%),	-8036
▁35%,	-8037
▁600,	-8038
▁huýt	-8039
▁muôi	-8040
▁máng	-8041
▁nhốn	-8042
▁thóp	-8043
▁vach	-8044
▁1,200	-8045
▁150%.	-8046
▁2,000	-8047
▁champ	-8048
▁chổng	-8049
▁music	-8050
▁toure	-8051
inmastu	-8052
▁------	-8053
▁sirens	-8054
▁2000(12	-8055
▁chimera	-8056
▁mengtuo	-8057
▁mountain	-8058
▁200000(23	-8059
77	-8060
9,	-8061
gr	-8062
he	-8063
ii	-8064
ua	-8065
bia	-8066
cmn	-8067
cạc	-8068
ece	-8069
họa	-8070
kta	-8071
les	-8072
mùi	-8073
yah	-8074
đùa	-8075
đất	-8076
▁8!	-8077
▁tâ	-8078
50%,	-8079
agne	-8080
chơi	-8081
cướp	-8082
dith	-8083
lean	-8084
nâng	-8085
quất	-8086
▁13.	-8087
▁630	-8088
▁64,	-8089
▁bụm	-8090
▁dòn	-8091
▁hếu	-8092
▁móa	-8093
▁rúm	-8094
▁rẫy	-8095
▁rụi	-8096
▁sọt	-8097
▁sỏi	-8098
▁tụt	-8099
▁vần	-8100
chiếm	-8101
chuôi	-8102
▁chớm	-8103
▁hong	-8104
▁lươi	-8105
▁niện	-8106
▁teru	-8107
▁thùi	-8108
▁khach	-8109
▁sable	-8110
▁6000(7	-8111
▁theron	-8112
▁treece	-8113
bakayarou	-8114
▁champagne	-8115
............	-8116
(,	-8117
6,	-8118
9.	-8119
!”,	-8120
20.	-8121
cải	-8122
cậu	-8123
cừu	-8124
los	-8125
nay	-8126
ree	-8127
tán	-8128
yểm	-8129
▁6:	-8130
▁ồm	-8131
aure	-8132
chức	-8133
ddin	-8134
elly	-8135
mori	-8136
nuốt	-8137
sour	-8138
thua	-8139
▁(15	-8140
▁(20	-8141
▁0(2	-8142
▁11!	-8143
▁13,	-8144
▁166	-8145
▁168	-8146
▁222	-8147
▁760	-8148
▁ala	-8149
▁bâu	-8150
▁chá	-8151
▁hắt	-8152
▁nít	-8153
▁sám	-8154
▁vấy	-8155
▁đap	-8156
▁đep	-8157
huyên	-8158
kelly	-8159
khiêu	-8160
▁1250	-8161
▁1300	-8162
▁25%,	-8163
▁600%	-8164
▁640,	-8165
▁asha	-8166
▁auto	-8167
▁leon	-8168
▁nhoi	-8169
source	-8170
▁"..."	-8171
▁500%.	-8172
▁alyah	-8173
▁daina	-8174
▁hoyle	-8175
▁login	-8176
▁ngoác	-8177
▁10000,	-8178
▁sutter	-8179
▁yaring	-8180
.-------	-8181
▁genmori	-8182
97	-8183
:,	-8184
].	-8185
aa	-8186
đỏ	-8187
ựt	-8188
ace	-8189
dao	-8190
dực	-8191
gen	-8192
gâu	-8193
hào	-8194
ily	-8195
leo	-8196
net	-8197
ngủ	-8198
ngữ	-8199
nhờ	-8200
phỉ	-8201
rơi	-8202
sso	-8203
▁7%	-8204
▁7:	-8205
▁8%	-8206
▁ak	-8207
▁hỷ	-8208
▁rò	-8209
▁đở	-8210
chia	-8211
chấp	-8212
gens	-8213
giấu	-8214
hoạt	-8215
keep	-8216
khối	-8217
liễm	-8218
liệp	-8219
snia	-8220
tein	-8221
xưng	-8222
▁14.	-8223
▁16.	-8224
▁21.	-8225
▁3.1	-8226
▁3.2	-8227
▁45,	-8228
▁576	-8229
▁870	-8230
▁90.	-8231
▁chả	-8232
▁dỗi	-8233
▁gộp	-8234
▁hưc	-8235
▁lới	-8236
▁nhừ	-8237
▁nvp	-8238
▁rát	-8239
▁rạo	-8240
▁sit	-8241
chris	-8242
eonix	-8243
ilean	-8244
ktata	-8245
ssius	-8246
▁"300	-8247
▁1260	-8248
▁20%!	-8249
▁2200	-8250
▁cham	-8251
▁chày	-8252
▁didi	-8253
▁giựt	-8254
▁gừng	-8255
▁like	-8256
▁nhắt	-8257
▁xuỵt	-8258
▁xỉnh	-8259
▁100%!	-8260
▁160(1	-8261
▁3500,	-8262
▁charl	-8263
▁emily	-8264
▁nhằng	-8265
▁thuân	-8266
▁barron	-8267
▁bosnia	-8268
▁choang	-8269
.”......	-8270
▁acheron	-8271
▁chigens	-8272
▁entropy	-8273
▁leonard	-8274
▁200000(2	-8275
▁truyenyyer	-8276
83	-8277
?.	-8278
cỡ	-8279
vỡ	-8280
àu	-8281
ỉa	-8282
ủa	-8283
150	-8284
ach	-8285
are	-8286
bụi	-8287
bực	-8288
che	-8289
hạc	-8290
osn	-8291
sức	-8292
tím	-8293
vui	-8294
đạp	-8295
đức	-8296
▁ac	-8297
▁dí	-8298
▁mè	-8299
▁tễ	-8300
▁xụ	-8301
100.	-8302
arah	-8303
caro	-8304
cộng	-8305
kiên	-8306
kênh	-8307
loai	-8308
onde	-8309
quán	-8310
vùng	-8311
▁0(3	-8312
▁009	-8313
▁1,0	-8314
▁10:	-8315
▁23,	-8316
▁368	-8317
▁dâp	-8318
▁dôc	-8319
▁kes	-8320
▁lơi	-8321
▁mât	-8322
▁tot	-8323
▁tìn	-8324
▁tút	-8325
▁tưc	-8326
▁xoã	-8327
▁yos	-8328
▁đui	-8329
dylan	-8330
sarah	-8331
thoạt	-8332
triêu	-8333
trắng	-8334
▁"200	-8335
▁0(38	-8336
▁10%(	-8337
▁4800	-8338
▁clip	-8339
▁khít	-8340
▁otto	-8341
▁8,000	-8342
▁bisso	-8343
▁chiên	-8344
▁ghosn	-8345
▁harus	-8346
▁leotu	-8347
▁siêng	-8348
▁2000%,	-8349
▁archim	-8350
▁sirick	-8351
!”......	-8352
▁aladdin	-8353
▁archimonde	-8354
61	-8355
],	-8356
ey	-8357
xx	-8358
đổ	-8359
."-	-8360
aur	-8361
bar	-8362
bor	-8363
cản	-8364
dọc	-8365
gon	-8366
hao	-8367
lẫn	-8368
mắc	-8369
nếm	-8370
ssa	-8371
tia	-8372
▁bb	-8373
▁dà	-8374
000.	-8375
15%,	-8376
25%,	-8377
bols	-8378
giản	-8379
lath	-8380
treo	-8381
▁002	-8382
▁158	-8383
▁2.3	-8384
▁241	-8385
▁294	-8386
▁295	-8387
▁3.3	-8388
▁372	-8389
▁422	-8390
▁69,	-8391
▁bla	-8392
▁bờm	-8393
▁cùi	-8394
▁gán	-8395
▁tấy	-8396
▁đít	-8397
otaur	-8398
▁850,	-8399
▁chad	-8400
▁ngum	-8401
▁ngòn	-8402
▁ngỏm	-8403
▁nhối	-8404
▁phat	-8405
▁phuc	-8406
▁phên	-8407
▁thểu	-8408
▁tiệp	-8409
▁tuẫn	-8410
▁yuli	-8411
domina	-8412
▁4000,	-8413
▁ariel	-8414
▁assad	-8415
▁chuấn	-8416
▁clone	-8417
▁nghẽn	-8418
▁plath	-8419
▁rubic	-8420
▁thảnh	-8421
▁toang	-8422
▁triên	-8423
▁truột	-8424
▁yoshi	-8425
▁pheonix	-8426
▁solomon	-8427
▁200000(1	-8428
▁minotaur	-8429
."--------	-8430
.............	-8431
""	-8432
,.	-8433
:?	-8434
bổ	-8435
lk	-8436
··	-8437
”!	-8438
10,	-8439
hia	-8440
hần	-8441
lộc	-8442
ord	-8443
rie	-8444
đới	-8445
▁lố	-8446
▁tõ	-8447
▁vố	-8448
▁xư	-8449
▁ây	-8450
▁ùa	-8451
...!	-8452
500,	-8453
:???	-8454
bias	-8455
diêu	-8456
khoa	-8457
mạch	-8458
ngây	-8459
ngốc	-8460
quấy	-8461
rộng	-8462
thăm	-8463
trục	-8464
ubor	-8465
vọng	-8466
▁1.5	-8467
▁186	-8468
▁212	-8469
▁325	-8470
▁35.	-8471
▁530	-8472
▁6%,	-8473
▁99.	-8474
▁clu	-8475
▁cưc	-8476
▁dêt	-8477
▁dỏm	-8478
▁hây	-8479
▁mèn	-8480
▁nấn	-8481
▁phả	-8482
▁rưc	-8483
▁súp	-8484
▁xén	-8485
▁đồm	-8486
astas	-8487
thoát	-8488
▁1920	-8489
▁400.	-8490
▁balo	-8491
▁gram	-8492
▁grey	-8493
▁hếch	-8494
▁lana	-8495
▁ngốn	-8496
▁scar	-8497
▁ural	-8498
▁xoăn	-8499
uborus	-8500
▁1800,	-8501
▁20%),	-8502
▁baron	-8503
▁coong	-8504
▁khoán	-8505
▁kiếng	-8506
▁ngênh	-8507
▁nidam	-8508
astasia	-8509
▁2000(2	-8510
▁thuồng	-8511
▁tobias	-8512
▁300,000	-8513
▁totbols	-8514
▁200000(9	-8515
▁olossius	-8516
29	-8517
by	-8518
km	-8519
me	-8520
▁ê	-8521
▁ị	-8522
ary	-8523
bbo	-8524
bùi	-8525
his	-8526
hói	-8527
loo	-8528
ném	-8529
uộc	-8530
xây	-8531
đen	-8532
▁"4	-8533
▁gù	-8534
▁pk	-8535
▁ss	-8536
▁sì	-8537
20%,	-8538
50%.	-8539
doan	-8540
khốn	-8541
lanh	-8542
mãng	-8543
nhặt	-8544
tống	-8545
▁"20	-8546
▁2,0	-8547
▁356	-8548
▁96,	-8549
▁bôt	-8550
▁cùn	-8551
▁dua	-8552
▁dấn	-8553
▁end	-8554
▁gài	-8555
▁mat	-8556
▁mim	-8557
▁nau	-8558
▁nốc	-8559
▁vêt	-8560
▁vện	-8561
▁xuê	-8562
▁đay	-8563
▁đìu	-8564
...."	-8565
bbott	-8566
chiếc	-8567
elion	-8568
esley	-8569
ltion	-8570
tilus	-8571
trúng	-8572
tưởng	-8573
▁180,	-8574
▁2300	-8575
▁3500	-8576
▁bach	-8577
▁club	-8578
▁cươi	-8579
▁giân	-8580
▁hass	-8581
▁lững	-8582
▁quặt	-8583
▁siểm	-8584
▁suôi	-8585
▁thóa	-8586
achary	-8587
▁!..."	-8588
▁240%,	-8589
▁giuộc	-8590
▁khướt	-8591
▁nguôi	-8592
▁nhuốn	-8593
▁thiêm	-8594
▁0.1%),	-8595
▁abbott	-8596
▁charles	-8597
▁marshak	-8598
vangelion	-8599
▁nautilus	-8600
▁screenshots	-8601
((	-8602
(3	-8603
(?	-8604
,,	-8605
64	-8606
ký	-8607
mụ	-8608
si	-8609
vụ	-8610
ãm	-8611
ọp	-8612
bal	-8613
chữ	-8614
eld	-8615
glo	-8616
hãn	-8617
khổ	-8618
lít	-8619
môt	-8620
nát	-8621
per	-8622
trị	-8623
tốn	-8624
yếu	-8625
đàn	-8626
đẩy	-8627
▁",	-8628
▁--	-8629
▁6%	-8630
▁?!	-8631
▁](	-8632
▁ku	-8633
▁md	-8634
▁te	-8635
bàng	-8636
dian	-8637
khặc	-8638
kiện	-8639
ngôn	-8640
nóng	-8641
ream	-8642
việt	-8643
▁"12	-8644
▁032	-8645
▁1.4	-8646
▁198	-8647
▁208	-8648
▁228	-8649
▁231	-8650
▁239	-8651
▁244	-8652
▁3,6	-8653
▁425	-8654
▁430	-8655
▁5.5	-8656
▁810	-8657
▁???	-8658
▁hẹm	-8659
▁họm	-8660
▁lsp	-8661
▁lúm	-8662
▁mãt	-8663
▁ngỡ	-8664
▁rad	-8665
▁rấy	-8666
▁sho	-8667
▁1040	-8668
▁1120	-8669
▁25%.	-8670
▁2560	-8671
▁350,	-8672
▁chồm	-8673
▁cáng	-8674
▁gles	-8675
▁khục	-8676
▁liềm	-8677
▁ngôc	-8678
▁ngợp	-8679
▁phùn	-8680
▁sềnh	-8681
▁thãn	-8682
▁thía	-8683
▁vers	-8684
▁yaro	-8685
global	-8686
▁2000.	-8687
▁2500,	-8688
▁500%(	-8689
▁liểng	-8690
▁nhoài	-8691
▁quàng	-8692
▁share	-8693
▁thõng	-8694
▁xiểng	-8695
bellega	-8696
▁coolin	-8697
▁1000000	-8698
▁anastasia	-8699
.----------	-8700
▁didiglobal	-8701
▁..............	-8702
cm	-8703
gn	-8704
ir	-8705
mb	-8706
sứ	-8707
tù	-8708
đá	-8709
ael	-8710
ain	-8711
bày	-8712
dài	-8713
két	-8714
len	-8715
mưu	-8716
sáo	-8717
sâm	-8718
▁"7	-8719
▁8:	-8720
▁mệ	-8721
▁nố	-8722
▁rợ	-8723
▁tv	-8724
▁vế	-8725
▁ya	-8726
30%,	-8727
35%,	-8728
atui	-8729
behe	-8730
biển	-8731
cath	-8732
emps	-8733
keng	-8734
lịch	-8735
neth	-8736
pert	-8737
đưng	-8738
▁0(1	-8739
▁062	-8740
▁161	-8741
▁17.	-8742
▁251	-8743
▁27,	-8744
▁296	-8745
▁505	-8746
▁59:	-8747
▁95%	-8748
▁but	-8749
▁bím	-8750
▁col	-8751
▁dam	-8752
▁eya	-8753
▁mủi	-8754
▁nap	-8755
▁nin	-8756
▁nẻo	-8757
▁rữa	-8758
▁soa	-8759
▁sòm	-8760
▁sạp	-8761
▁thé	-8762
▁đoi	-8763
khiến	-8764
lanha	-8765
trống	-8766
▁!!!!	-8767
▁....	-8768
▁0(19	-8769
▁1,00	-8770
▁7200	-8771
▁bung	-8772
▁chiu	-8773
▁code	-8774
▁giưa	-8775
▁hami	-8776
▁item	-8777
▁molt	-8778
▁ngóe	-8779
▁niểu	-8780
▁rích	-8781
▁shit	-8782
▁trớn	-8783
▁trừu	-8784
▁tạnh	-8785
▁viêt	-8786
▁vãnh	-8787
asagao	-8788
cuatui	-8789
empsta	-8790
rielle	-8791
tylock	-8792
▁1010.	-8793
▁350%,	-8794
▁henri	-8795
▁kesha	-8796
▁nhoẻn	-8797
▁peter	-8798
.------	-8799
▁samael	-8800
▁terryl	-8801
▁kenneth	-8802
▁hamiltion	-8803
▁0013076067"	-8804
43	-8805
bế	-8806
hl	-8807
lũ	-8808
nể	-8809
pt	-8810
rk	-8811
biu	-8812
cus	-8813
cáp	-8814
cẩm	-8815
dây	-8816
dần	-8817
gio	-8818
gro	-8819
iki	-8820
lay	-8821
llo	-8822
nét	-8823
ono	-8824
oro	-8825
trà	-8826
trụ	-8827
uất	-8828
đai	-8829
ễng	-8830
▁pr	-8831
▁én	-8832
)(2)	-8833
arag	-8834
châu	-8835
chọn	-8836
gược	-8837
hông	-8838
iece	-8839
ikir	-8840
khóc	-8841
mong	-8842
nhảy	-8843
thác	-8844
đình	-8845
▁"15	-8846
▁"30	-8847
▁."«	-8848
▁025	-8849
▁056	-8850
▁172	-8851
▁176	-8852
▁245	-8853
▁253	-8854
▁255	-8855
▁265	-8856
▁273	-8857
▁278	-8858
▁315	-8859
▁4.9	-8860
▁55,	-8861
▁620	-8862
▁780	-8863
▁83.	-8864
▁boi	-8865
▁lua	-8866
▁náu	-8867
▁nĩa	-8868
▁nưt	-8869
▁one	-8870
▁oắt	-8871
▁rua	-8872
▁rón	-8873
bbers	-8874
tuyên	-8875
▁"500	-8876
▁(14,	-8877
▁550,	-8878
▁800%	-8879
▁chầu	-8880
▁chực	-8881
▁gree	-8882
▁khae	-8883
▁nguỵ	-8884
▁ngớn	-8885
▁nhom	-8886
▁nách	-8887
▁page	-8888
▁suôn	-8889
▁thuỳ	-8890
▁trầy	-8891
asetti	-8892
gloria	-8893
lstein	-8894
nghênh	-8895
▁6000,	-8896
▁chuôt	-8897
▁dream	-8898
▁nhiếc	-8899
▁piece	-8900
▁thach	-8901
nesario	-8902
▁10000.	-8903
▁marcus	-8904
▁terris	-8905
▁upload	-8906
▁tibbers	-8907
▁tiktata	-8908
1%	-8909
49	-8910
::	-8911
[.	-8912
cử	-8913
oo	-8914
xá	-8915
▁ó	-8916
)!"	-8917
20%	-8918
?”,	-8919
bài	-8920
cky	-8921
cặn	-8922
dọa	-8923
lhu	-8924
lls	-8925
màn	-8926
ola	-8927
tẩu	-8928
yếm	-8929
đập	-8930
▁"8	-8931
▁7-	-8932
▁]?	-8933
▁cm	-8934
▁yo	-8935
ards	-8936
bảnh	-8937
bồng	-8938
bỗng	-8939
chói	-8940
chữa	-8941
dáng	-8942
elbo	-8943
emmm	-8944
eson	-8945
lính	-8946
mông	-8947
nhắm	-8948
nhịn	-8949
nặng	-8950
ript	-8951
sóng	-8952
tặng	-8953
▁(36	-8954
▁(40	-8955
▁1,8	-8956
▁1.6	-8957
▁12!	-8958
▁138	-8959
▁203	-8960
▁23:	-8961
▁3,4	-8962
▁3."	-8963
▁3.8	-8964
▁311	-8965
▁501	-8966
▁610	-8967
▁75,	-8968
▁75.	-8969
▁85,	-8970
▁93,	-8971
▁bệt	-8972
▁dũa	-8973
▁găp	-8974
▁láu	-8975
▁rùm	-8976
▁sàm	-8977
▁săt	-8978
▁tat	-8979
▁túp	-8980
▁vên	-8981
▁xam	-8982
chanh	-8983
cương	-8984
cưỡng	-8985
khánh	-8986
ngẩng	-8987
nhiệt	-8988
tháng	-8989
▁bopp	-8990
▁bẫng	-8991
▁cash	-8992
▁cthu	-8993
▁live	-8994
▁nhụy	-8995
▁phơn	-8996
▁thuc	-8997
▁tửng	-8998
beards	-8999
chuyến	-9000
▁200(4	-9001
▁anime	-9002
▁chels	-9003
▁giùng	-9004
▁helbo	-9005
▁phình	-9006
▁trườn	-9007
vanessa	-9008
▁10100.	-9009
▁angola	-9010
▁khiễng	-9011
▁cthulhu	-9012
▁erlanha	-9013
▁200000(24	-9014
▁200000(38	-9015
▁henrielle	-9016
▁200000(230	-9017
▁greybeards	-9018
,”	-9019
51	-9020
79	-9021
cù	-9022
cỏ	-9023
ks	-9024
ok	-9025
ựu	-9026
aus	-9027
cle	-9028
của	-9029
end	-9030
mập	-9031
ney	-9032
náo	-9033
tạp	-9034
tản	-9035
đạn	-9036
▁cy	-9037
▁eu	-9038
▁gn	-9039
▁đễ	-9040
0000	-9041
1500	-9042
25%.	-9043
châm	-9044
mãnh	-9045
soph	-9046
thor	-9047
tháp	-9048
thổi	-9049
tuần	-9050
tảng	-9051
▁"50	-9052
▁118	-9053
▁174	-9054
▁194	-9055
▁196	-9056
▁2.9	-9057
▁22.	-9058
▁221	-9059
▁227	-9060
▁232	-9061
▁258	-9062
▁336	-9063
▁4.8	-9064
▁416	-9065
▁580	-9066
▁59,	-9067
▁6%.	-9068
▁7,7	-9069
▁825	-9070
▁860	-9071
▁?!”	-9072
▁bãn	-9073
▁bèn	-9074
▁húp	-9075
▁hổm	-9076
▁kít	-9077
▁nệm	-9078
▁nữu	-9079
▁ogn	-9080
▁sửu	-9081
▁toi	-9082
▁vac	-9083
▁vỉa	-9084
aters	-9085
chỉnh	-9086
khống	-9087
nguồn	-9088
racle	-9089
tuyển	-9090
▁0(14	-9091
▁1320	-9092
▁1536	-9093
▁20%(	-9094
▁6800	-9095
▁700.	-9096
▁9600	-9097
▁bald	-9098
▁buôc	-9099
▁emmm	-9100
▁gaia	-9101
▁hĩnh	-9102
▁ngac	-9103
▁nhầy	-9104
▁quỵt	-9105
▁thuy	-9106
▁trám	-9107
▁200%!	-9108
▁200(1	-9109
▁andel	-9110
▁edith	-9111
▁elena	-9112
▁muông	-9113
▁thiều	-9114
▁thặng	-9115
dòngmáu	-9116
lạchồng	-9117
▁amarag	-9118
▁ognion	-9119
▁script	-9120
▁tritis	-9121
▁2000(15	-9122
▁miracle	-9123
▁versaill	-9124
dòngmáulạchồng	-9125
.?	-9126
bỉ	-9127
đê	-9128
,??	-9129
142	-9130
?".	-9131
cận	-9132
dia	-9133
dic	-9134
dri	-9135
edo	-9136
hàm	-9137
ian	-9138
lph	-9139
lột	-9140
mia	-9141
não	-9142
ood	-9143
vli	-9144
xúc	-9145
xúi	-9146
đâm	-9147
ỵch	-9148
▁4(	-9149
▁[3	-9150
▁gỉ	-9151
▁mn	-9152
▁xg	-9153
▁ôc	-9154
▁ắp	-9155
aloo	-9156
chọc	-9157
dric	-9158
kent	-9159
khóa	-9160
khẩn	-9161
king	-9162
lười	-9163
nghê	-9164
nhuế	-9165
rose	-9166
thận	-9167
trêu	-9168
▁(24	-9169
▁0.5	-9170
▁1,3	-9171
▁162	-9172
▁178	-9173
▁2.4	-9174
▁263	-9175
▁301	-9176
▁35,	-9177
▁421	-9178
▁456	-9179
▁523	-9180
▁590	-9181
▁612	-9182
▁625	-9183
▁65,	-9184
▁69.	-9185
▁70.	-9186
▁8%,	-9187
▁970	-9188
▁biu	-9189
▁bỉu	-9190
▁chã	-9191
▁chè	-9192
▁dóc	-9193
▁gàn	-9194
▁mác	-9195
▁rủn	-9196
▁đẫy	-9197
genel	-9198
geras	-9199
thùng	-9200
udina	-9201
▁0(25	-9202
▁1152	-9203
▁1350	-9204
▁210!	-9205
▁4900	-9206
▁505.	-9207
▁chợp	-9208
▁dahl	-9209
▁giâu	-9210
▁gnar	-9211
▁ngủn	-9212
▁nhưc	-9213
▁rita	-9214
▁soán	-9215
▁trìu	-9216
▁trăn	-9217
▁tuối	-9218
bolton	-9219
khoáng	-9220
▁1200.	-9221
▁1600,	-9222
▁180%,	-9223
▁700%.	-9224
▁liệng	-9225
▁nadia	-9226
▁phiết	-9227
▁quark	-9228
▁sadic	-9229
▁thoat	-9230
▁tuông	-9231
▁virus	-9232
▁50000,	-9233
▁6000(6	-9234
▁albert	-9235
▁khoách	-9236
▁namika	-9237
▁phaedo	-9238
▁rubens	-9239
▁rupert	-9240
▁10,000,	-9241
▁101000.	-9242
▁sageras	-9243
▁tempsta	-9244
▁“......	-9245
▁evangelion	-9246
su	-9247
ỏn	-9248
?"'	-9249
cúi	-9250
dun	-9251
gan	-9252
hút	-9253
hại	-9254
hức	-9255
imo	-9256
irs	-9257
mạo	-9258
mềm	-9259
mệt	-9260
ngã	-9261
ngộ	-9262
noi	-9263
nổi	-9264
oka	-9265
sha	-9266
tsu	-9267
vưu	-9268
đái	-9269
▁"9	-9270
▁(.	-9271
▁)=	-9272
▁-.	-9273
▁4%	-9274
▁:"	-9275
▁[.	-9276
▁bư	-9277
▁dủ	-9278
▁mả	-9279
▁nơ	-9280
▁rọ	-9281
▁sy	-9282
▁sạ	-9283
▁ẻn	-9284
▁ỏn	-9285
▁“«	-9286
)(1)	-9287
."".	-9288
bảng	-9289
hoán	-9290
irst	-9291
lina	-9292
liếm	-9293
muộn	-9294
onin	-9295
stra	-9296
suối	-9297
sủng	-9298
điệp	-9299
▁!."	-9300
▁0.1	-9301
▁035	-9302
▁1,6	-9303
▁111	-9304
▁2."	-9305
▁2.8	-9306
▁206	-9307
▁213	-9308
▁214	-9309
▁275	-9310
▁279	-9311
▁28.	-9312
▁3,3	-9313
▁308	-9314
▁30:	-9315
▁404	-9316
▁42,	-9317
▁635	-9318
▁660	-9319
▁7,5	-9320
▁9,6	-9321
▁950	-9322
▁]?"	-9323
▁aba	-9324
▁ark	-9325
▁bấu	-9326
▁chỏ	-9327
▁cạy	-9328
▁cỡi	-9329
▁dôi	-9330
▁gag	-9331
▁god	-9332
▁gội	-9333
▁hục	-9334
▁hựu	-9335
▁khò	-9336
▁lia	-9337
▁lất	-9338
▁lức	-9339
▁nần	-9340
▁rén	-9341
▁xun	-9342
chinh	-9343
dunis	-9344
groth	-9345
halls	-9346
laser	-9347
▁10."	-9348
▁100(	-9349
▁35%.	-9350
▁chận	-9351
▁giơi	-9352
▁guar	-9353
▁lahr	-9354
▁môtơ	-9355
▁nhúm	-9356
▁nhút	-9357
▁nhậu	-9358
▁nhẹt	-9359
▁rãng	-9360
▁rươu	-9361
▁thăt	-9362
▁tuôt	-9363
barker	-9364
miriam	-9365
▁3200,	-9366
▁600%(	-9367
▁aslag	-9368
▁choai	-9369
▁chạch	-9370
▁khễnh	-9371
▁loạng	-9372
▁nhướn	-9373
▁primo	-9374
▁topic	-9375
100000,	-9376
▁1500%,	-9377
▁adunis	-9378
▁cedric	-9379
▁glaser	-9380
▁eugenel	-9381
▁)]......	-9382
▁chonaill	-9383
▁guardian	-9384
truyencuatui	-9385
!.	-9386
3"	-9387
:"	-9388
ọm	-9389
▁ế	-9390
!!"	-9391
)."	-9392
30%	-9393
ans	-9394
bon	-9395
bộc	-9396
cấu	-9397
dyr	-9398
dứt	-9399
har	-9400
hat	-9401
ith	-9402
lad	-9403
máy	-9404
mồi	-9405
nãi	-9406
thù	-9407
tục	-9408
đậu	-9409
▁%,	-9410
▁5!	-9411
▁9:	-9412
▁cp	-9413
▁gồ	-9414
▁gở	-9415
!!!”	-9416
-80%	-9417
5000	-9418
chin	-9419
chào	-9420
chúa	-9421
chủy	-9422
dule	-9423
hiếu	-9424
hống	-9425
lạnh	-9426
phối	-9427
rion	-9428
tiếu	-9429
trân	-9430
đụng	-9431
▁0(5	-9432
▁021	-9433
▁052	-9434
▁1.7	-9435
▁10-	-9436
▁171	-9437
▁223	-9438
▁24.	-9439
▁276	-9440
▁283	-9441
▁292	-9442
▁299	-9443
▁303	-9444
▁309	-9445
▁36.	-9446
▁375	-9447
▁386	-9448
▁387	-9449
▁403	-9450
▁435	-9451
▁454	-9452
▁5."	-9453
▁510	-9454
▁536	-9455
▁55.	-9456
▁65.	-9457
▁675	-9458
▁72.	-9459
▁812	-9460
▁980	-9461
▁bẹn	-9462
▁cor	-9463
▁cội	-9464
▁ghẻ	-9465
▁lol	-9466
▁rod	-9467
▁réo	-9468
▁tiu	-9469
▁táu	-9470
▁tạt	-9471
▁xxx	-9472
▁xỉn	-9473
▁đân	-9474
errol	-9475
grimm	-9476
hoằng	-9477
phone	-9478
pruer	-9479
tràng	-9480
▁129.	-9481
▁1620	-9482
▁buột	-9483
▁bươm	-9484
▁chot	-9485
▁chĩa	-9486
▁dăng	-9487
▁dửng	-9488
▁elda	-9489
▁kháo	-9490
▁list	-9491
▁lếch	-9492
▁lổng	-9493
▁mồng	-9494
▁quặn	-9495
▁udyr	-9496
▁uỵch	-9497
▁xoan	-9498
ebster	-9499
gaelle	-9500
sophie	-9501
▁"3000	-9502
▁300%(	-9503
▁600%.	-9504
▁7,000	-9505
▁8000,	-9506
▁ellen	-9507
▁guồng	-9508
▁nghỉu	-9509
▁thiel	-9510
▁thếch	-9511
▁tuyêt	-9512
▁1000%.	-9513
▁brandi	-9514
▁chuộng	-9515
▁clonin	-9516
▁module	-9517
▁thanks	-9518
▁2000(16	-9519
▁80.000,	-9520
cotillard	-9521
▁200000(3	-9522
▁200000(4	-9523
▁holstein	-9524
▁-----------	-9525
(.	-9526
59	-9527
?«	-9528
gỗ	-9529
hù	-9530
mù	-9531
mũ	-9532
nn	-9533
pg	-9534
đè	-9535
(10	-9536
561	-9537
98,	-9538
aba	-9539
bub	-9540
car	-9541
dân	-9542
gây	-9543
hộp	-9544
kat	-9545
ler	-9546
mùa	-9547
phe	-9548
pri	-9549
rác	-9550
săn	-9551
thê	-9552
▁2(	-9553
▁bỡ	-9554
▁dì	-9555
▁mó	-9556
▁mỵ	-9557
▁pa	-9558
▁rệ	-9559
▁ui	-9560
▁vn	-9561
!"".	-9562
2000	-9563
bara	-9564
chặt	-9565
cứng	-9566
ebub	-9567
eric	-9568
erth	-9569
gars	-9570
luca	-9571
mạng	-9572
nhãn	-9573
sông	-9574
tràn	-9575
tước	-9576
xoay	-9577
▁.".	-9578
▁0."	-9579
▁0.0	-9580
▁069	-9581
▁1,1	-9582
▁141	-9583
▁19:	-9584
▁2,8	-9585
▁26.	-9586
▁272	-9587
▁277	-9588
▁28,	-9589
▁323	-9590
▁324	-9591
▁33.	-9592
▁34.	-9593
▁383	-9594
▁44.	-9595
▁47:	-9596
▁48.	-9597
▁489	-9598
▁52,	-9599
▁54,	-9600
▁567	-9601
▁58.	-9602
▁59.	-9603
▁690	-9604
▁693	-9605
▁7."	-9606
▁712	-9607
▁770	-9608
▁84,	-9609
▁85.	-9610
▁864	-9611
▁95.	-9612
▁acc	-9613
▁aka	-9614
▁cuc	-9615
▁cur	-9616
▁căp	-9617
▁dúa	-9618
▁dụm	-9619
▁ghề	-9620
▁hăm	-9621
▁lêu	-9622
▁lặt	-9623
▁mer	-9624
▁nhơ	-9625
▁ram	-9626
▁róm	-9627
▁sạo	-9628
▁tap	-9629
▁tủa	-9630
▁vii	-9631
▁vái	-9632
▁đán	-9633
▁đãy	-9634
arlin	-9635
chida	-9636
elial	-9637
hilda	-9638
leotu	-9639
phách	-9640
quặng	-9641
riend	-9642
tsuki	-9643
▁(120	-9644
▁0(40	-9645
▁1010	-9646
▁240,	-9647
▁4200	-9648
▁60%"	-9649
▁600.	-9650
▁70%.	-9651
▁90%.	-9652
▁bayi	-9653
▁beel	-9654
▁beng	-9655
▁biếm	-9656
▁dịnh	-9657
▁ghìm	-9658
▁hank	-9659
▁hẫng	-9660
▁khấn	-9661
▁lily	-9662
▁lord	-9663
▁nell	-9664
▁ngái	-9665
▁nhụi	-9666
▁polk	-9667
▁ting	-9668
▁vanh	-9669
▁.....	-9670
▁250%,	-9671
▁3000.	-9672
▁800%.	-9673
▁aluca	-9674
▁chùng	-9675
▁limat	-9676
▁nghía	-9677
▁ngoắt	-9678
▁perth	-9679
▁ruồng	-9680
▁thươc	-9681
▁tuồng	-9682
▁belial	-9683
▁camera	-9684
▁laires	-9685
▁rodney	-9686
▁tyrion	-9687
katyusha	-9688
▁carline	-9689
▁akatsuki	-9690
.(	-9691
cl	-9692
ny	-9693
rt	-9694
sí	-9695
đỡ	-9696
30.	-9697
bai	-9698
bbg	-9699
dai	-9700
gor	-9701
gốc	-9702
iba	-9703
imu	-9704
iật	-9705
khà	-9706
lát	-9707
lân	-9708
lửa	-9709
mật	-9710
nat	-9711
ner	-9712
ogu	-9713
pal	-9714
phú	-9715
rre	-9716
sân	-9717
tuế	-9718
vải	-9719
xâm	-9720
xảo	-9721
▁"(	-9722
▁)%	-9723
▁5]	-9724
▁6-	-9725
▁9%	-9726
▁cr	-9727
▁cộ	-9728
▁lị	-9729
!!!!	-9730
!!!"	-9731
bart	-9732
ckey	-9733
dill	-9734
dụng	-9735
ggio	-9736
hiệp	-9737
khâm	-9738
kiểu	-9739
mảng	-9740
oran	-9741
phấn	-9742
vinh	-9743
xinh	-9744
điểu	-9745
▁"16	-9746
▁"70	-9747
▁02:	-9748
▁1-2	-9749
▁10(	-9750
▁12:	-9751
▁181	-9752
▁187	-9753
▁188	-9754
▁21:	-9755
▁257	-9756
▁289	-9757
▁3,5	-9758
▁304	-9759
▁344	-9760
▁345	-9761
▁353	-9762
▁436	-9763
▁446	-9764
▁453	-9765
▁466	-9766
▁490	-9767
▁49:	-9768
▁50:	-9769
▁521	-9770
▁526	-9771
▁52:	-9772
▁541	-9773
▁563	-9774
▁570	-9775
▁633	-9776
▁670	-9777
▁68.	-9778
▁7.9	-9779
▁78,	-9780
▁85:	-9781
▁890	-9782
▁bat	-9783
▁bop	-9784
▁gâp	-9785
▁lụt	-9786
▁môm	-9787
▁mụi	-9788
▁nầm	-9789
▁pos	-9790
▁rệp	-9791
▁tau	-9792
▁toạ	-9793
▁xía	-9794
▁xồm	-9795
▁xột	-9796
▁»!"	-9797
▁đặm	-9798
100%!	-9799
coran	-9800
dưỡng	-9801
hoảng	-9802
ibali	-9803
ssall	-9804
tahan	-9805
thory	-9806
▁0(20	-9807
▁0(21	-9808
▁0(23	-9809
▁1%)]	-9810
▁1...	-9811
▁100:	-9812
▁11.2	-9813
▁1360	-9814
▁1560	-9815
▁173:	-9816
▁181:	-9817
▁182:	-9818
▁1860	-9819
▁204:	-9820
▁212:	-9821
▁214:	-9822
▁216:	-9823
▁217:	-9824
▁320(	-9825
▁3300	-9826
▁3400	-9827
▁50%!	-9828
▁700%	-9829
▁chọt	-9830
▁chửa	-9831
▁evli	-9832
▁giũa	-9833
▁khoả	-9834
▁khắn	-9835
▁khọm	-9836
▁kiro	-9837
▁kỉnh	-9838
▁nhon	-9839
▁nành	-9840
▁pain	-9841
▁pule	-9842
▁quẹt	-9843
▁rúng	-9844
▁tong	-9845
▁tron	-9846
▁trứu	-9847
▁tuốt	-9848
▁uyến	-9849
▁vuôt	-9850
▁vông	-9851
."----	-9852
bartle	-9853
dillos	-9854
emogor	-9855
mappel	-9856
prilla	-9857
stella	-9858
thoáng	-9859
▁...""	-9860
▁150%!	-9861
▁200%(	-9862
▁asell	-9863
▁block	-9864
▁chặng	-9865
▁della	-9866
▁halls	-9867
▁moune	-9868
▁nghịu	-9869
▁nhoẹt	-9870
▁nhành	-9871
▁radar	-9872
▁ruimu	-9873
▁salad	-9874
▁torre	-9875
▁xoạch	-9876
spencer	-9877
▁10.000	-9878
▁12,000	-9879
▁18,000	-9880
▁2000%.	-9881
▁20000,	-9882
▁baggio	-9883
▁garona	-9884
▁mickey	-9885
▁sauter	-9886
▁skills	-9887
▁thoang	-9888
▁rossall	-9889
▁yakoran	-9890
emogorgon	-9891
▁asprilla	-9892
▁gadillos	-9893
▁yoshioka	-9894
0,	-9895
53	-9896
6!	-9897
cy	-9898
gì	-9899
lô	-9900
nụ	-9901
rd	-9902
vẽ	-9903
▁õ	-9904
.",	-9905
12,	-9906
120	-9907
2%,	-9908
ani	-9909
bật	-9910
bội	-9911
cal	-9912
chê	-9913
cúp	-9914
cưu	-9915
hận	-9916
kẽo	-9917
meo	-9918
mod	-9919
mâu	-9920
nén	-9921
nặc	-9922
nực	-9923
rửa	-9924
sam	-9925
shi	-9926
sản	-9927
the	-9928
thà	-9929
túc	-9930
tặc	-9931
tồn	-9932
xưa	-9933
đeo	-9934
ươn	-9935
ượi	-9936
▁)-	-9937
▁qr	-9938
▁sp	-9939
▁uc	-9940
▁»=	-9941
4000	-9942
alla	-9943
baal	-9944
buộc	-9945
chặn	-9946
eham	-9947
giám	-9948
giảm	-9949
mart	-9950
nate	-9951
ngọn	-9952
pháo	-9953
phẫn	-9954
sean	-9955
sion	-9956
thơm	-9957
thảm	-9958
thỏi	-9959
tiệm	-9960
trạm	-9961
tạch	-9962
vung	-9963
yatt	-9964
▁"66	-9965
▁(27	-9966
▁0.6	-9967
▁1,4	-9968
▁11:	-9969
▁175	-9970
▁17:	-9971
▁182	-9972
▁189	-9973
▁19,	-9974
▁197	-9975
▁2,2	-9976
▁207	-9977
▁219	-9978
▁23.	-9979
▁233	-9980
▁246	-9981
▁262	-9982
▁267	-9983
▁26:	-9984
▁284	-9985
▁287	-9986
▁29:	-9987
▁3%,	-9988
▁3%.	-9989
▁34:	-9990
▁352	-9991
▁37.	-9992
▁37:	-9993
▁38.	-9994
▁40:	-9995
▁423	-9996
▁42:	-9997
▁432	-9998
▁451	-9999
▁514	-10000
▁53:	-10001
▁577	-10002
▁601	-10003
▁63:	-10004
▁678	-10005
▁68:	-10006
▁7,6	-10007
▁702	-10008
▁71:	-10009
▁72,	-10010
▁73:	-10011
▁75:	-10012
▁77:	-10013
▁786	-10014
▁84:	-10015
▁92:	-10016
▁93:	-10017
▁96:	-10018
▁97:	-10019
▁98.	-10020
▁987	-10021
▁98:	-10022
▁99:	-10023
▁:))	-10024
▁ceo	-10025
▁day	-10026
▁gạc	-10027
▁kar	-10028
▁kep	-10029
▁lòi	-10030
▁mắm	-10031
▁roc	-10032
▁sni	-10033
▁sur	-10034
▁vấp	-10035
▁xum	-10036
▁xèo	-10037
▁yếp	-10038
."...	-10039
...!"	-10040
khuôn	-10041
triết	-10042
▁!!!"	-10043
▁)...	-10044
▁0%),	-10045
▁1020	-10046
▁108.	-10047
▁1111	-10048
▁111:	-10049
▁114:	-10050
▁12%,	-10051
▁123:	-10052
▁127:	-10053
▁128:	-10054
▁129:	-10055
▁131:	-10056
▁135:	-10057
▁136:	-10058
▁139:	-10059
▁142:	-10060
▁1450	-10061
▁146:	-10062
▁147:	-10063
▁150:	-10064
▁156:	-10065
▁158:	-10066
▁159:	-10067
▁161:	-10068
▁164:	-10069
▁172:	-10070
▁174:	-10071
▁183:	-10072
▁188:	-10073
▁189:	-10074
▁191:	-10075
▁193:	-10076
▁194:	-10077
▁195:	-10078
▁197:	-10079
▁198:	-10080
▁203:	-10081
▁207:	-10082
▁209:	-10083
▁211:	-10084
▁2600	-10085
▁280,	-10086
▁350%	-10087
▁450,	-10088
▁465:	-10089
▁50%(	-10090
▁537:	-10091
▁538:	-10092
▁750,	-10093
▁adam	-10094
▁auge	-10095
▁buýt	-10096
▁dell	-10097
▁diếc	-10098
▁gach	-10099
▁gard	-10100
▁hoắm	-10101
▁kaba	-10102
▁khảy	-10103
▁lucy	-10104
▁miển	-10105
▁momi	-10106
▁mích	-10107
▁ngưa	-10108
▁nhuc	-10109
▁nhàu	-10110
▁nhũi	-10111
▁oman	-10112
▁phầm	-10113
▁rono	-10114
▁rượi	-10115
▁sach	-10116
▁tháy	-10117
▁trưc	-10118
▁xăng	-10119
▁».""	-10120
▁đoat	-10121
▁đấng	-10122
modeus	-10123
nghiễn	-10124
trượng	-10125
▁5000.	-10126
▁gally	-10127
▁galos	-10128
▁hường	-10129
▁ngãng	-10130
▁short	-10131
▁tapir	-10132
▁thoăn	-10133
▁thênh	-10134
▁toáng	-10135
200000,	-10136
▁nghếch	-10137
▁sniper	-10138
▁uchida	-10139
▁1280(85	-10140
▁barbara	-10141
▁bathory	-10142
▁gardner	-10143
▁yoshika	-10144
?--------	-10145
catherine	-10146
▁2000(110	-10147
▁asmodeus	-10148
▁“......”	-10149
▁demogorgon	-10150
▁-------------	-10151
(2	-10152
5)	-10153
58	-10154
bả	-10155
bọ	-10156
dv	-10157
hề	-10158
ko	-10159
nu	-10160
xà	-10161
(5,	-10162
021	-10163
039	-10164
2%.	-10165
720	-10166
750	-10167
960	-10168
===	-10169
air	-10170
bul	-10171
bút	-10172
bận	-10173
dày	-10174
hát	-10175
hét	-10176
iev	-10177
kel	-10178
kít	-10179
loa	-10180
lộn	-10181
mái	-10182
ore	-10183
phì	-10184
ray	-10185
rei	-10186
riv	-10187
rât	-10188
sắt	-10189
sửa	-10190
thở	-10191
tật	-10192
unk	-10193
uẩn	-10194
yểu	-10195
▁"6	-10196
▁0!	-10197
▁3(	-10198
▁7!	-10199
▁dc	-10200
▁dọ	-10201
▁ea	-10202
▁«(	-10203
▁ọp	-10204
100,	-10205
3000	-10206
bbon	-10207
boer	-10208
bệnh	-10209
hách	-10210
hạnh	-10211
khảm	-10212
ltic	-10213
mắng	-10214
ngôi	-10215
nính	-10216
ryan	-10217
ròng	-10218
ssey	-10219
taro	-10220
tena	-10221
thúy	-10222
uổng	-10223
xoát	-10224
xuân	-10225
xứng	-10226
▁(30	-10227
▁)."	-10228
▁."'	-10229
▁0%!	-10230
▁0.7	-10231
▁1-3	-10232
▁11-	-10233
▁13:	-10234
▁14:	-10235
▁15:	-10236
▁169	-10237
▁16:	-10238
▁191	-10239
▁2,5	-10240
▁266	-10241
▁27.	-10242
▁274	-10243
▁285	-10244
▁286	-10245
▁28:	-10246
▁31:	-10247
▁32:	-10248
▁357	-10249
▁35:	-10250
▁362	-10251
▁38:	-10252
▁393	-10253
▁397	-10254
▁40!	-10255
▁407	-10256
▁424	-10257
▁428	-10258
▁43:	-10259
▁44,	-10260
▁448	-10261
▁44:	-10262
▁452	-10263
▁455	-10264
▁458	-10265
▁467	-10266
▁46:	-10267
▁48:	-10268
▁497	-10269
▁5,4	-10270
▁54:	-10271
▁569	-10272
▁56:	-10273
▁58:	-10274
▁608	-10275
▁60:	-10276
▁61:	-10277
▁624	-10278
▁64:	-10279
▁66,	-10280
▁67:	-10281
▁69:	-10282
▁7%,	-10283
▁70:	-10284
▁729	-10285
▁74:	-10286
▁76:	-10287
▁790	-10288
▁80:	-10289
▁820	-10290
▁82:	-10291
▁836	-10292
▁83:	-10293
▁84.	-10294
▁842	-10295
▁896	-10296
▁89:	-10297
▁90:	-10298
▁bbg	-10299
▁blu	-10300
▁băc	-10301
▁bơt	-10302
▁dáy	-10303
▁dĩa	-10304
▁giẻ	-10305
▁gôc	-10306
▁gọp	-10307
▁llu	-10308
▁lãn	-10309
▁lịm	-10310
▁mep	-10311
▁mon	-10312
▁nhữ	-10313
▁nài	-10314
▁nẩy	-10315
▁nết	-10316
▁qru	-10317
▁vie	-10318
▁véo	-10319
▁xôm	-10320
▁xạc	-10321
▁yêm	-10322
chăng	-10323
huỳnh	-10324
hưởng	-10325
kerry	-10326
khiêm	-10327
khoan	-10328
khung	-10329
linor	-10330
natia	-10331
ngang	-10332
olsen	-10333
phiên	-10334
phiến	-10335
splay	-10336
tates	-10337
thang	-10338
thiệu	-10339
thuốc	-10340
trình	-10341
trích	-10342
trạng	-10343
▁(240	-10344
▁(640	-10345
▁000,	-10346
▁102:	-10347
▁103:	-10348
▁106:	-10349
▁109:	-10350
▁11."	-10351
▁1102	-10352
▁110:	-10353
▁112:	-10354
▁113:	-10355
▁116:	-10356
▁126:	-10357
▁1270	-10358
▁130:	-10359
▁1313	-10360
▁133:	-10361
▁134:	-10362
▁1376	-10363
▁137:	-10364
▁138:	-10365
▁149:	-10366
▁152:	-10367
▁153:	-10368
▁1540	-10369
▁154:	-10370
▁162:	-10371
▁163:	-10372
▁1667	-10373
▁167:	-10374
▁1680	-10375
▁171:	-10376
▁175:	-10377
▁1769	-10378
▁176:	-10379
▁179:	-10380
▁180.	-10381
▁186:	-10382
▁190:	-10383
▁20."	-10384
▁200:	-10385
▁202.	-10386
▁205:	-10387
▁206:	-10388
▁208:	-10389
▁210:	-10390
▁213:	-10391
▁215:	-10392
▁219:	-10393
▁223:	-10394
▁225:	-10395
▁228:	-10396
▁229:	-10397
▁230:	-10398
▁231:	-10399
▁233:	-10400
▁236:	-10401
▁239:	-10402
▁240:	-10403
▁241:	-10404
▁242:	-10405
▁245:	-10406
▁247:	-10407
▁250%	-10408
▁250,	-10409
▁252:	-10410
▁255:	-10411
▁257:	-10412
▁260:	-10413
▁262:	-10414
▁40(3	-10415
▁420,	-10416
▁45%,	-10417
▁451:	-10418
▁489:	-10419
▁490:	-10420
▁50%"	-10421
▁524:	-10422
▁533:	-10423
▁534:	-10424
▁535:	-10425
▁539:	-10426
▁543:	-10427
▁546:	-10428
▁552:	-10429
▁5700	-10430
▁6500	-10431
▁700,	-10432
▁8400	-10433
▁9260	-10434
▁[3],	-10435
▁choc	-10436
▁dứng	-10437
▁high	-10438
▁khều	-10439
▁luno	-10440
▁lầng	-10441
▁mướt	-10442
▁ness	-10443
▁ngấy	-10444
▁niev	-10445
▁phảm	-10446
▁priv	-10447
▁rướm	-10448
▁sale	-10449
▁truỵ	-10450
▁trặc	-10451
▁viêc	-10452
▁viển	-10453
▁vễnh	-10454
▁vựng	-10455
▁xiii	-10456
calvin	-10457
thưởng	-10458
▁"2000	-10459
▁"300.	-10460
▁"5000	-10461
▁0(551	-10462
▁1,100	-10463
▁1,800	-10464
▁12000	-10465
▁1251:	-10466
▁1303:	-10467
▁1343:	-10468
▁160(,	-10469
▁18000	-10470
▁3,500	-10471
▁chong	-10472
▁dượng	-10473
▁kabul	-10474
▁khoắt	-10475
▁khằng	-10476
▁khỉnh	-10477
▁liêng	-10478
▁nhạnh	-10479
▁onion	-10480
▁rường	-10481
▁xuyết	-10482
hubbard	-10483
▁altena	-10484
▁choạng	-10485
▁dragon	-10486
▁elinor	-10487
▁gibbon	-10488
▁potter	-10489
▁ruther	-10490
▁estates	-10491
▁private	-10492
▁metruyen	-10493
▁nievella	-10494
?"--------	-10495
▁rutherland	-10496
▁versailles	-10497
(5	-10498
0)	-10499
46	-10500
bg	-10501
bò	-10502
bờ	-10503
ek	-10504
ou	-10505
tú	-10506
xs	-10507
(18	-10508
105	-10509
124	-10510
160	-10511
349	-10512
47,	-10513
542	-10514
ati	-10515
bah	-10516
bốc	-10517
can	-10518
cơm	-10519
dọn	-10520
gạt	-10521
hoả	-10522
hán	-10523
hẹn	-10524
lme	-10525
lon	-10526
lut	-10527
lén	-10528
lật	-10529
lắp	-10530
mba	-10531
moi	-10532
mối	-10533
nấc	-10534
oth	-10535
ple	-10536
rèn	-10537
rần	-10538
ski	-10539
tar	-10540
thẻ	-10541
trớ	-10542
tui	-10543
tắm	-10544
xen	-10545
yar	-10546
đáy	-10547
đãi	-10548
đói	-10549
▁"!	-10550
▁))	-10551
▁09	-10552
▁5(	-10553
▁8(	-10554
▁ab	-10555
▁dó	-10556
▁eg	-10557
▁ei	-10558
▁ol	-10559
▁pi	-10560
▁sb	-10561
▁ul	-10562
▁uu	-10563
1200	-10564
500%	-10565
aine	-10566
arts	-10567
chui	-10568
cạch	-10569
dadv	-10570
erry	-10571
gánh	-10572
mênh	-10573
nhằm	-10574
nuôi	-10575
nịnh	-10576
phồn	-10577
péti	-10578
rods	-10579
ruhr	-10580
rọng	-10581
súng	-10582
thưa	-10583
tion	-10584
tyri	-10585
tạng	-10586
điền	-10587
▁"36	-10588
▁(((	-10589
▁(4,	-10590
▁(??	-10591
▁)%,	-10592
▁)(7	-10593
▁0(7	-10594
▁148	-10595
▁159	-10596
▁163	-10597
▁2,4	-10598
▁2,7	-10599
▁20!	-10600
▁217	-10601
▁22:	-10602
▁24:	-10603
▁254	-10604
▁26,	-10605
▁27:	-10606
▁291	-10607
▁317	-10608
▁337	-10609
▁33:	-10610
▁34,	-10611
▁341	-10612
▁351	-10613
▁36:	-10614
▁39:	-10615
▁413	-10616
▁41:	-10617
▁442	-10618
▁443	-10619
▁477	-10620
▁48,	-10621
▁486	-10622
▁55:	-10623
▁568	-10624
▁65:	-10625
▁66:	-10626
▁672	-10627
▁689	-10628
▁7.7	-10629
▁714	-10630
▁725	-10631
▁764	-10632
▁87:	-10633
▁88:	-10634
▁89,	-10635
▁89.	-10636
▁919	-10637
▁95:	-10638
▁96.	-10639
▁963	-10640
▁===	-10641
▁bựa	-10642
▁càm	-10643
▁dến	-10644
▁hog	-10645
▁hãc	-10646
▁lỏm	-10647
▁mam	-10648
▁mut	-10649
▁mít	-10650
▁mội	-10651
▁mớm	-10652
▁nhò	-10653
▁nâp	-10654
▁nây	-10655
▁nưc	-10656
▁sim	-10657
▁ton	-10658
▁xii	-10659
▁yềm	-10660
▁đét	-10661
▁đăc	-10662
▁đớp	-10663
(5,0)	-10664
100%.	-10665
1000,	-10666
chuột	-10667
giảng	-10668
hượng	-10669
keane	-10670
khoác	-10671
loảng	-10672
mbals	-10673
ruồng	-10674
thiện	-10675
trừng	-10676
▁1,25	-10677
▁10%!	-10678
▁100!	-10679
▁1023	-10680
▁104:	-10681
▁107:	-10682
▁1107	-10683
▁1125	-10684
▁115:	-10685
▁119:	-10686
▁120:	-10687
▁122:	-10688
▁1231	-10689
▁124:	-10690
▁130%	-10691
▁132:	-10692
▁140:	-10693
▁141:	-10694
▁1433	-10695
▁143:	-10696
▁151:	-10697
▁155:	-10698
▁157:	-10699
▁1594	-10700
▁160:	-10701
▁170:	-10702
▁177:	-10703
▁178:	-10704
▁180:	-10705
▁185:	-10706
▁187:	-10707
▁196:	-10708
▁199:	-10709
▁2021	-10710
▁202:	-10711
▁2123	-10712
▁220:	-10713
▁221:	-10714
▁222:	-10715
▁226:	-10716
▁227:	-10717
▁232:	-10718
▁235:	-10719
▁243:	-10720
▁248:	-10721
▁249:	-10722
▁250:	-10723
▁251:	-10724
▁254:	-10725
▁256:	-10726
▁258:	-10727
▁261:	-10728
▁265:	-10729
▁267:	-10730
▁277:	-10731
▁280:	-10732
▁281:	-10733
▁285:	-10734
▁289:	-10735
▁290:	-10736
▁291:	-10737
▁292:	-10738
▁295:	-10739
▁296:	-10740
▁297:	-10741
▁300:	-10742
▁305:	-10743
▁306:	-10744
▁308:	-10745
▁309:	-10746
▁311:	-10747
▁315:	-10748
▁321:	-10749
▁322:	-10750
▁325:	-10751
▁327:	-10752
▁328:	-10753
▁331:	-10754
▁332:	-10755
▁336:	-10756
▁339:	-10757
▁340:	-10758
▁342:	-10759
▁343:	-10760
▁344:	-10761
▁345:	-10762
▁346:	-10763
▁347:	-10764
▁348:	-10765
▁350:	-10766
▁352:	-10767
▁355:	-10768
▁358:	-10769
▁359:	-10770
▁367:	-10771
▁371:	-10772
▁373:	-10773
▁374:	-10774
▁375:	-10775
▁377:	-10776
▁378:	-10777
▁380:	-10778
▁382:	-10779
▁388:	-10780
▁394:	-10781
▁395:	-10782
▁396:	-10783
▁400:	-10784
▁401:	-10785
▁402:	-10786
▁405:	-10787
▁407:	-10788
▁408:	-10789
▁413:	-10790
▁416:	-10791
▁424:	-10792
▁425:	-10793
▁426:	-10794
▁427:	-10795
▁428:	-10796
▁434:	-10797
▁435:	-10798
▁436:	-10799
▁439:	-10800
▁445:	-10801
▁45%.	-10802
▁450:	-10803
▁453:	-10804
▁454:	-10805
▁456:	-10806
▁457:	-10807
▁458:	-10808
▁462:	-10809
▁464:	-10810
▁471:	-10811
▁472:	-10812
▁473:	-10813
▁474:	-10814
▁481:	-10815
▁484:	-10816
▁486:	-10817
▁491:	-10818
▁494:	-10819
▁495:	-10820
▁496:	-10821
▁504:	-10822
▁507:	-10823
▁508:	-10824
▁511:	-10825
▁516:	-10826
▁517:	-10827
▁518:	-10828
▁520,	-10829
▁5200	-10830
▁520:	-10831
▁522:	-10832
▁523:	-10833
▁525:	-10834
▁527:	-10835
▁529:	-10836
▁530:	-10837
▁531:	-10838
▁532:	-10839
▁542:	-10840
▁544:	-10841
▁547:	-10842
▁548:	-10843
▁549:	-10844
▁553:	-10845
▁556:	-10846
▁559:	-10847
▁570:	-10848
▁572:	-10849
▁574:	-10850
▁575:	-10851
▁576:	-10852
▁599:	-10853
▁75%.	-10854
▁7700	-10855
▁8100	-10856
▁baby	-10857
▁ball	-10858
▁buôm	-10859
▁erin	-10860
▁giãm	-10861
▁gold	-10862
▁grom	-10863
▁hero	-10864
▁kaka	-10865
▁khăp	-10866
▁khụy	-10867
▁mính	-10868
▁nhèm	-10869
▁phằm	-10870
▁plas	-10871
▁post	-10872
▁sand	-10873
▁trhi	-10874
▁tréo	-10875
▁tươc	-10876
▁vưng	-10877
▁xuấn	-10878
▁yoga	-10879
bonnie	-10880
burren	-10881
etooth	-10882
lenlut	-10883
ngượng	-10884
samast	-10885
tholme	-10886
triple	-10887
tyrion	-10888
ulliel	-10889
▁0(450	-10890
▁1,008	-10891
▁1,300	-10892
▁1,700	-10893
▁100)"	-10894
▁100."	-10895
▁1136:	-10896
▁1138:	-10897
▁1139:	-10898
▁1141:	-10899
▁1200:	-10900
▁1235:	-10901
▁1244:	-10902
▁1257:	-10903
▁1259:	-10904
▁1263:	-10905
▁1265:	-10906
▁1269:	-10907
▁1271:	-10908
▁1273:	-10909
▁1275:	-10910
▁1276:	-10911
▁1284:	-10912
▁1287:	-10913
▁1288:	-10914
▁1289:	-10915
▁1307:	-10916
▁1312:	-10917
▁1313:	-10918
▁1315:	-10919
▁1317:	-10920
▁1326:	-10921
▁1328:	-10922
▁1330:	-10923
▁1332:	-10924
▁1334:	-10925
▁1339:	-10926
▁1346:	-10927
▁1350:	-10928
▁1667,	-10929
▁200(2	-10930
▁200(8	-10931
▁23000	-10932
▁400%(	-10933
▁450%,	-10934
▁50500	-10935
▁68000	-10936
▁becky	-10937
▁coeus	-10938
▁derek	-10939
▁giong	-10940
▁haier	-10941
▁maier	-10942
▁paras	-10943
▁quinn	-10944
▁sabah	-10945
▁smart	-10946
▁tiềng	-10947
▁tracy	-10948
......"	-10949
harrods	-10950
▁(4000)	-10951
▁14,000	-10952
▁160(18	-10953
▁200(30	-10954
▁60,000	-10955
▁baltic	-10956
kassadin	-10957
rayleigh	-10958
▁2000(14	-10959
▁50%-80%	-10960
▁canhmời	-10961
▁cymbals	-10962
gangplank	-10963
▁1280(147	-10964
▁200000(244	-10965
▁------------	-10966
,4	-10967
1)	-10968
2"	-10969
bề	-10970
cà	-10971
dì	-10972
gộ	-10973
hg	-10974
my	-10975
nư	-10976
nổ	-10977
qq	-10978
sy	-10979
sờ	-10980
tb	-10981
tơ	-10982
ưc	-10983
ưm	-10984
!!”	-10985
004	-10986
187	-10987
458	-10988
541	-10989
850	-10990
987	-10991
ali	-10992
amo	-10993
bel	-10994
ber	-10995
cta	-10996
cất	-10997
cắm	-10998
duệ	-10999
dâm	-11000
gal	-11001
gun	-11002
hod	-11003
húc	-11004
ich	-11005
ick	-11006
lắm	-11007
nan	-11008
nhã	-11009
nui	-11010
nồi	-11011
rge	-11012
sài	-11013
thơ	-11014
thọ	-11015
tôi	-11016
tỏa	-11017
tựu	-11018
vid	-11019
vor	-11020
xit	-11021
yhg	-11022
đắt	-11023
đếm	-11024
đọc	-11025
▁"'	-11026
▁'“	-11027
▁.'	-11028
▁.«	-11029
▁6(	-11030
▁ag	-11031
▁by	-11032
▁eh	-11033
▁hd	-11034
▁hõ	-11035
▁pl	-11036
▁sá	-11037
▁ịa	-11038
)))?	-11039
aaaa	-11040
atih	-11041
cháu	-11042
cạnh	-11043
ddie	-11044
diện	-11045
emen	-11046
giấy	-11047
giọt	-11048
high	-11049
hưng	-11050
hạch	-11051
isto	-11052
khấu	-11053
lino	-11054
lược	-11055
mini	-11056
mùng	-11057
nghề	-11058
nghệ	-11059
ngẫm	-11060
nhàm	-11061
nồng	-11062
quấn	-11063
rani	-11064
ruen	-11065
rồng	-11066
sang	-11067
sảng	-11068
thầm	-11069
thỏa	-11070
tier	-11071
toán	-11072
uông	-11073
viết	-11074
vách	-11075
điệu	-11076
▁!""	-11077
▁"11	-11078
▁"13	-11079
▁"18	-11080
▁(16	-11081
▁(21	-11082
▁01%	-11083
▁03:	-11084
▁155	-11085
▁184	-11086
▁195	-11087
▁199	-11088
▁218	-11089
▁234	-11090
▁268	-11091
▁29.	-11092
▁293	-11093
▁3,0	-11094
▁305	-11095
▁321	-11096
▁328	-11097
▁333	-11098
▁361	-11099
▁364	-11100
▁38,	-11101
▁389	-11102
▁392	-11103
▁4-5	-11104
▁401	-11105
▁43.	-11106
▁437	-11107
▁438	-11108
▁45:	-11109
▁46.	-11110
▁463	-11111
▁472	-11112
▁478	-11113
▁488	-11114
▁49,	-11115
▁51,	-11116
▁515	-11117
▁51:	-11118
▁525	-11119
▁527	-11120
▁53.	-11121
▁533	-11122
▁537	-11123
▁544	-11124
▁56,	-11125
▁56.	-11126
▁57,	-11127
▁573	-11128
▁57:	-11129
▁62:	-11130
▁64.	-11131
▁642	-11132
▁645	-11133
▁651	-11134
▁653	-11135
▁667	-11136
▁72:	-11137
▁740	-11138
▁753	-11139
▁78.	-11140
▁78:	-11141
▁79:	-11142
▁803	-11143
▁808	-11144
▁813	-11145
▁81:	-11146
▁838	-11147
▁85]	-11148
▁863	-11149
▁86:	-11150
▁87.	-11151
▁88%	-11152
▁9.5	-11153
▁913	-11154
▁920	-11155
▁932	-11156
▁94:	-11157
▁95,	-11158
▁97.	-11159
▁aly	-11160
▁aoe	-11161
▁cel	-11162
▁dứa	-11163
▁geo	-11164
▁giỗ	-11165
▁gôi	-11166
▁gùi	-11167
▁gẩy	-11168
▁hon	-11169
▁hùa	-11170
▁húy	-11171
▁khè	-11172
▁lảm	-11173
▁lịa	-11174
▁mmp	-11175
▁mèm	-11176
▁mẫm	-11177
▁mận	-11178
▁rám	-11179
▁rõi	-11180
▁sme	-11181
▁xái	-11182
▁đôc	-11183
▁đểu	-11184
▁“10	-11185
100%,	-11186
agani	-11187
anlos	-11188
atten	-11189
caius	-11190
cathy	-11191
coong	-11192
corot	-11193
cyril	-11194
dante	-11195
lotto	-11196
morse	-11197
nhiên	-11198
quanh	-11199
rocky	-11200
tasgo	-11201
thịnh	-11202
trinh	-11203
triển	-11204
▁(160	-11205
▁0(13	-11206
▁0(16	-11207
▁0.00	-11208
▁101:	-11209
▁105:	-11210
▁1128	-11211
▁12."	-11212
▁120%	-11213
▁1220	-11214
▁1230	-11215
▁125:	-11216
▁148:	-11217
▁1510	-11218
▁1520	-11219
▁166:	-11220
▁169:	-11221
▁1730	-11222
▁184:	-11223
▁201:	-11224
▁210,	-11225
▁234:	-11226
▁2387	-11227
▁238:	-11228
▁246:	-11229
▁253:	-11230
▁259:	-11231
▁263:	-11232
▁266:	-11233
▁268:	-11234
▁270:	-11235
▁271:	-11236
▁275:	-11237
▁279:	-11238
▁280.	-11239
▁282:	-11240
▁283:	-11241
▁287:	-11242
▁298:	-11243
▁299:	-11244
▁310:	-11245
▁312:	-11246
▁313:	-11247
▁314:	-11248
▁317:	-11249
▁318:	-11250
▁320:	-11251
▁323:	-11252
▁326:	-11253
▁329:	-11254
▁333:	-11255
▁334:	-11256
▁335:	-11257
▁349:	-11258
▁351:	-11259
▁354:	-11260
▁356:	-11261
▁357:	-11262
▁362:	-11263
▁366:	-11264
▁372:	-11265
▁376:	-11266
▁379:	-11267
▁381:	-11268
▁389:	-11269
▁390:	-11270
▁391:	-11271
▁397:	-11272
▁398:	-11273
▁399:	-11274
▁403:	-11275
▁406:	-11276
▁411:	-11277
▁415:	-11278
▁417:	-11279
▁419:	-11280
▁421:	-11281
▁422:	-11282
▁429:	-11283
▁433:	-11284
▁437:	-11285
▁440%	-11286
▁440:	-11287
▁441:	-11288
▁443:	-11289
▁447:	-11290
▁448:	-11291
▁449:	-11292
▁455:	-11293
▁460:	-11294
▁461:	-11295
▁469:	-11296
▁475:	-11297
▁477:	-11298
▁478:	-11299
▁482:	-11300
▁485:	-11301
▁492:	-11302
▁493:	-11303
▁497:	-11304
▁499:	-11305
▁500:	-11306
▁501:	-11307
▁513:	-11308
▁515:	-11309
▁519:	-11310
▁521:	-11311
▁526:	-11312
▁528:	-11313
▁536:	-11314
▁540:	-11315
▁541:	-11316
▁545:	-11317
▁550:	-11318
▁551:	-11319
▁554:	-11320
▁555:	-11321
▁557:	-11322
▁558:	-11323
▁560:	-11324
▁565:	-11325
▁566:	-11326
▁569:	-11327
▁571:	-11328
▁577:	-11329
▁579:	-11330
▁580:	-11331
▁581:	-11332
▁588:	-11333
▁592:	-11334
▁593:	-11335
▁594:	-11336
▁600:	-11337
▁601:	-11338
▁602:	-11339
▁606:	-11340
▁609:	-11341
▁610:	-11342
▁612:	-11343
▁720,	-11344
▁7213	-11345
▁749:	-11346
▁8%),	-11347
▁8253	-11348
▁826:	-11349
▁861:	-11350
▁8888	-11351
▁888:	-11352
▁900,	-11353
▁915:	-11354
▁935:	-11355
▁938:	-11356
▁9500	-11357
▁967:	-11358
▁989:	-11359
▁9900	-11360
▁axit	-11361
▁bohr	-11362
▁dích	-11363
▁giầy	-11364
▁guộc	-11365
▁hach	-11366
▁iron	-11367
▁kháu	-11368
▁khản	-11369
▁kiếu	-11370
▁kong	-11371
▁lola	-11372
▁meph	-11373
▁nhồi	-11374
▁nord	-11375
▁oạch	-11376
▁quác	-11377
▁robe	-11378
▁roma	-11379
▁rười	-11380
▁sơmi	-11381
▁sắng	-11382
▁thiu	-11383
▁thom	-11384
▁trhể	-11385
▁trùn	-11386
▁viii	-11387
▁vừng	-11388
alicia	-11389
baigat	-11390
cuenca	-11391
emente	-11392
graine	-11393
milton	-11394
nghiền	-11395
themar	-11396
thuđại	-11397
traman	-11398
yaring	-11399
▁"1000	-11400
▁0(552	-11401
▁0(554	-11402
▁1,600	-11403
▁1000:	-11404
▁1019:	-11405
▁1034:	-11406
▁1046:	-11407
▁1127:	-11408
▁1128:	-11409
▁1137:	-11410
▁1142:	-11411
▁1143:	-11412
▁1144:	-11413
▁1149:	-11414
▁1156:	-11415
▁1157:	-11416
▁1162:	-11417
▁1163:	-11418
▁1173:	-11419
▁1174:	-11420
▁1175:	-11421
▁1179:	-11422
▁1186:	-11423
▁1191:	-11424
▁1192:	-11425
▁1200%	-11426
▁1203:	-11427
▁1208:	-11428
▁1209:	-11429
▁1211:	-11430
▁1212:	-11431
▁1214:	-11432
▁1215:	-11433
▁1216:	-11434
▁1217:	-11435
▁1218:	-11436
▁1221:	-11437
▁1222:	-11438
▁1223:	-11439
▁1224:	-11440
▁1225:	-11441
▁1227:	-11442
▁1231:	-11443
▁1232:	-11444
▁1243:	-11445
▁1245:	-11446
▁1247:	-11447
▁1250:	-11448
▁1255:	-11449
▁1258:	-11450
▁1260:	-11451
▁1261:	-11452
▁1266:	-11453
▁1272:	-11454
▁1277:	-11455
▁1280:	-11456
▁1282:	-11457
▁1285:	-11458
▁1286:	-11459
▁1290:	-11460
▁1291:	-11461
▁1292:	-11462
▁1295:	-11463
▁1297:	-11464
▁1298:	-11465
▁1302:	-11466
▁1304:	-11467
▁1305:	-11468
▁1308:	-11469
▁1309:	-11470
▁1311:	-11471
▁1314:	-11472
▁1320:	-11473
▁1324:	-11474
▁1327:	-11475
▁1331:	-11476
▁1333:	-11477
▁1336:	-11478
▁1338:	-11479
▁1359:	-11480
▁1393:	-11481
▁1399:	-11482
▁1441:	-11483
▁1465:	-11484
▁1489:	-11485
▁1510:	-11486
▁1516:	-11487
▁1519:	-11488
▁1520:	-11489
▁1524:	-11490
▁1525:	-11491
▁1530:	-11492
▁1538:	-11493
▁1600.	-11494
▁1668,	-11495
▁200(3	-11496
▁320(,	-11497
▁450%(	-11498
▁5200,	-11499
▁6,561	-11500
▁7000,	-11501
▁900%,	-11502
▁carlo	-11503
▁check	-11504
▁chãng	-11505
▁eddie	-11506
▁ghiền	-11507
▁lolth	-11508
▁moore	-11509
▁neham	-11510
▁ngoèo	-11511
▁ngoằn	-11512
▁segal	-11513
▁simon	-11514
▁sylph	-11515
▁thinh	-11516
▁thiệm	-11517
▁truân	-11518
▁trĩnh	-11519
▁urani	-11520
150000,	-11521
:......	-11522
ashburn	-11523
loadadv	-11524
shirley	-11525
tbatten	-11526
▁0.1%)]	-11527
▁110000	-11528
▁16,000	-11529
▁25,000	-11530
▁30000,	-11531
▁80,000	-11532
▁alyssa	-11533
▁celina	-11534
▁george	-11535
▁lorene	-11536
▁malino	-11537
▁mammon	-11538
▁smecta	-11539
▁trevor	-11540
phongvân	-11541
▁200,000	-11542
▁cartier	-11543
▁cosplay	-11544
▁hillley	-11545
▁khuyếch	-11546
▁susanna	-11547
▁mephisto	-11548
thuđạikiếp	-11549
▁morgraine	-11550
."---------	-11551
▁screenshot	-11552
▁mountbatten	-11553
phongvânquyển	-11554
▁scriptloadadv	-11555
thiênthuđạikiếp	-11556
1]	-11557
2!	-11558
br	-11559
cú	-11560
cờ	-11561
dò	-11562
gà	-11563
hố	-11564
kì	-11565
mồ	-11566
nã	-11567
pa	-11568
pe	-11569
rị	-11570
vp	-11571
vẻ	-11572
ứu	-11573
▁ì	-11574
▁ă	-11575
▁ờ	-11576
(15	-11577
)?"	-11578
00.	-11579
1%,	-11580
10!	-11581
365	-11582
377	-11583
50.	-11584
546	-11585
80,	-11586
ags	-11587
ark	-11588
aye	-11589
bat	-11590
bến	-11591
cởi	-11592
ema	-11593
giơ	-11594
gào	-11595
ham	-11596
hít	-11597
khẽ	-11598
kèm	-11599
lóe	-11600
môi	-11601
olo	-11602
ons	-11603
orm	-11604
ors	-11605
oàm	-11606
phò	-11607
quế	-11608
rau	-11609
rít	-11610
sốt	-11611
ván	-11612
vứt	-11613
xac	-11614
xéo	-11615
đơi	-11616
ượm	-11617
▁-[	-11618
▁lì	-11619
▁sồ	-11620
▁tộ	-11621
▁··	-11622
▁úa	-11623
▁ơt	-11624
▁ưm	-11625
200%	-11626
300.	-11627
aksa	-11628
aoli	-11629
ater	-11630
bach	-11631
bius	-11632
chen	-11633
chôn	-11634
chớp	-11635
cõng	-11636
cưỡi	-11637
dính	-11638
dựng	-11639
ghes	-11640
giêt	-11641
hale	-11642
hiễm	-11643
imos	-11644
inia	-11645
kelp	-11646
khỏi	-11647
loor	-11648
lông	-11649
lặng	-11650
manh	-11651
ngón	-11652
nhẫn	-11653
niềm	-11654
phác	-11655
ralt	-11656
reva	-11657
rạng	-11658
tgun	-11659
thas	-11660
ting	-11661
tiêm	-11662
tton	-11663
điếm	-11664
▁"17	-11665
▁(3)	-11666
▁1):	-11667
▁1,9	-11668
▁18%	-11669
▁18:	-11670
▁2,6	-11671
▁201	-11672
▁209	-11673
▁243	-11674
▁25:	-11675
▁297	-11676
▁302	-11677
▁31.	-11678
▁316	-11679
▁343	-11680
▁346	-11681
▁369	-11682
▁4,7	-11683
▁427	-11684
▁493	-11685
▁5%!	-11686
▁528	-11687
▁53,	-11688
▁531	-11689
▁532	-11690
▁54.	-11691
▁548	-11692
▁57.	-11693
▁588	-11694
▁596	-11695
▁62%	-11696
▁621	-11697
▁648	-11698
▁66.	-11699
▁67.	-11700
▁683	-11701
▁723	-11702
▁730	-11703
▁784	-11704
▁8%.	-11705
▁815	-11706
▁830	-11707
▁85%	-11708
▁910	-11709
▁912	-11710
▁91:	-11711
▁92,	-11712
▁92.	-11713
▁93.	-11714
▁930	-11715
▁94,	-11716
▁940	-11717
▁ama	-11718
▁boc	-11719
▁bấc	-11720
▁gam	-11721
▁goc	-11722
▁gơn	-11723
▁hõn	-11724
▁hập	-11725
▁lìm	-11726
▁múi	-11727
▁mầu	-11728
▁niu	-11729
▁nvc	-11730
▁nạy	-11731
▁oặt	-11732
▁rạm	-11733
▁scp	-11734
▁set	-11735
▁sốc	-11736
▁văt	-11737
▁vựa	-11738
▁xạm	-11739
▁xớm	-11740
150%!	-11741
5000,	-11742
alger	-11743
amoto	-11744
chiết	-11745
chước	-11746
doanh	-11747
giọng	-11748
grace	-11749
huyêt	-11750
khuất	-11751
kháng	-11752
lenci	-11753
llock	-11754
myron	-11755
nolan	-11756
onoha	-11757
phỏng	-11758
quyến	-11759
ronus	-11760
theon	-11761
thiểm	-11762
▁(320	-11763
▁0(12	-11764
▁0(24	-11765
▁0(30	-11766
▁0(44	-11767
▁1012	-11768
▁108:	-11769
▁110,	-11770
▁1124	-11771
▁1142	-11772
▁1144	-11773
▁117:	-11774
▁121:	-11775
▁1240	-11776
▁1251	-11777
▁1296	-11778
▁1340	-11779
▁1359	-11780
▁1420	-11781
▁144:	-11782
▁145:	-11783
▁1505	-11784
▁160.	-11785
▁165:	-11786
▁168:	-11787
▁192:	-11788
▁2%),	-11789
▁200!	-11790
▁2140	-11791
▁218:	-11792
▁224:	-11793
▁237:	-11794
▁2381	-11795
▁244:	-11796
▁264:	-11797
▁269:	-11798
▁272:	-11799
▁273:	-11800
▁274:	-11801
▁278:	-11802
▁288:	-11803
▁293:	-11804
▁294:	-11805
▁301:	-11806
▁302:	-11807
▁303:	-11808
▁304:	-11809
▁319:	-11810
▁324:	-11811
▁330:	-11812
▁337:	-11813
▁338:	-11814
▁341:	-11815
▁3448	-11816
▁353:	-11817
▁363:	-11818
▁364:	-11819
▁368:	-11820
▁370:	-11821
▁383:	-11822
▁384:	-11823
▁385:	-11824
▁386:	-11825
▁392:	-11826
▁393:	-11827
▁404.	-11828
▁409:	-11829
▁410:	-11830
▁414:	-11831
▁418:	-11832
▁420:	-11833
▁430:	-11834
▁432:	-11835
▁444:	-11836
▁446:	-11837
▁450%	-11838
▁452:	-11839
▁459:	-11840
▁466:	-11841
▁467:	-11842
▁470:	-11843
▁476:	-11844
▁479:	-11845
▁480:	-11846
▁483:	-11847
▁487:	-11848
▁488:	-11849
▁502:	-11850
▁503:	-11851
▁505:	-11852
▁506:	-11853
▁510:	-11854
▁561:	-11855
▁562:	-11856
▁563:	-11857
▁564:	-11858
▁567:	-11859
▁568:	-11860
▁573:	-11861
▁582:	-11862
▁583:	-11863
▁584:	-11864
▁585:	-11865
▁586:	-11866
▁590:	-11867
▁591:	-11868
▁595:	-11869
▁596:	-11870
▁597:	-11871
▁603:	-11872
▁604:	-11873
▁6057	-11874
▁607:	-11875
▁608:	-11876
▁611:	-11877
▁616:	-11878
▁617:	-11879
▁618:	-11880
▁619:	-11881
▁624:	-11882
▁628:	-11883
▁629:	-11884
▁631:	-11885
▁635:	-11886
▁637:	-11887
▁638:	-11888
▁640:	-11889
▁641:	-11890
▁645:	-11891
▁647:	-11892
▁649:	-11893
▁650:	-11894
▁652:	-11895
▁654:	-11896
▁658:	-11897
▁659:	-11898
▁662:	-11899
▁663:	-11900
▁665:	-11901
▁6660	-11902
▁668:	-11903
▁670:	-11904
▁672:	-11905
▁673:	-11906
▁674:	-11907
▁679:	-11908
▁681:	-11909
▁682:	-11910
▁683:	-11911
▁686:	-11912
▁687:	-11913
▁688:	-11914
▁690:	-11915
▁692:	-11916
▁696:	-11917
▁698:	-11918
▁701:	-11919
▁704:	-11920
▁705:	-11921
▁706:	-11922
▁707:	-11923
▁710:	-11924
▁713:	-11925
▁716:	-11926
▁717:	-11927
▁718:	-11928
▁719:	-11929
▁720:	-11930
▁721:	-11931
▁723:	-11932
▁725:	-11933
▁726:	-11934
▁727:	-11935
▁730:	-11936
▁731:	-11937
▁732:	-11938
▁733:	-11939
▁736:	-11940
▁741:	-11941
▁744:	-11942
▁747:	-11943
▁748:	-11944
▁75%,	-11945
▁751:	-11946
▁752:	-11947
▁758:	-11948
▁760:	-11949
▁761:	-11950
▁765:	-11951
▁767:	-11952
▁768:	-11953
▁771:	-11954
▁775:	-11955
▁776:	-11956
▁779:	-11957
▁780:	-11958
▁784:	-11959
▁789:	-11960
▁790:	-11961
▁791:	-11962
▁795:	-11963
▁799:	-11964
▁80%"	-11965
▁80(9	-11966
▁801:	-11967
▁803:	-11968
▁804:	-11969
▁806:	-11970
▁807:	-11971
▁813:	-11972
▁814:	-11973
▁817:	-11974
▁818:	-11975
▁819:	-11976
▁821:	-11977
▁823:	-11978
▁834:	-11979
▁835:	-11980
▁836:	-11981
▁841:	-11982
▁842:	-11983
▁843:	-11984
▁844:	-11985
▁850:	-11986
▁851:	-11987
▁852:	-11988
▁854:	-11989
▁856:	-11990
▁862:	-11991
▁863:	-11992
▁866:	-11993
▁869:	-11994
▁870:	-11995
▁872:	-11996
▁875:	-11997
▁876:	-11998
▁877:	-11999
▁878:	-12000
▁881:	-12001
▁883:	-12002
▁884:	-12003
▁886:	-12004
▁887:	-12005
▁890:	-12006
▁891:	-12007
▁892:	-12008
▁893:	-12009
▁894:	-12010
▁895:	-12011
▁896:	-12012
▁897:	-12013
▁899:	-12014
▁901:	-12015
▁902:	-12016
▁903:	-12017
▁904:	-12018
▁905:	-12019
▁907:	-12020
▁909:	-12021
▁911:	-12022
▁913:	-12023
▁917:	-12024
▁918:	-12025
▁920:	-12026
▁925:	-12027
▁929:	-12028
▁930:	-12029
▁934:	-12030
▁936:	-12031
▁940:	-12032
▁942:	-12033
▁943:	-12034
▁944:	-12035
▁945:	-12036
▁948:	-12037
▁950:	-12038
▁953:	-12039
▁955:	-12040
▁956:	-12041
▁957:	-12042
▁958:	-12043
▁959:	-12044
▁960:	-12045
▁963:	-12046
▁964:	-12047
▁965:	-12048
▁9704	-12049
▁971:	-12050
▁972:	-12051
▁975:	-12052
▁976:	-12053
▁977:	-12054
▁979:	-12055
▁983:	-12056
▁986:	-12057
▁988:	-12058
▁992:	-12059
▁993:	-12060
▁994:	-12061
▁995:	-12062
▁997:	-12063
▁999:	-12064
▁amos	-12065
▁ares	-12066
▁chảm	-12067
▁chẹp	-12068
▁chẻo	-12069
▁dame	-12070
▁hoáy	-12071
▁hõng	-12072
▁kháp	-12073
▁kors	-12074
▁lian	-12075
▁lượm	-12076
▁lảng	-12077
▁ngẹo	-12078
▁nhuế	-12079
▁nhớp	-12080
▁nằng	-12081
▁okus	-12082
▁pass	-12083
▁phât	-12084
▁phãn	-12085
▁quậy	-12086
▁ruai	-12087
▁rush	-12088
▁rượt	-12089
▁simm	-12090
▁solo	-12091
▁sướt	-12092
▁sượt	-12093
▁thùa	-12094
▁trhế	-12095
▁vice	-12096
▁virg	-12097
▁vình	-12098
▁xoet	-12099
▁xoàm	-12100
▁đoài	-12101
▁“800	-12102
10000,	-12103
50000,	-12104
60000,	-12105
chuông	-12106
dyssey	-12107
nghiêu	-12108
▁0(555	-12109
▁0(557	-12110
▁1,250	-12111
▁1001:	-12112
▁1006:	-12113
▁1007:	-12114
▁1008:	-12115
▁1010:	-12116
▁1011:	-12117
▁1012:	-12118
▁1013:	-12119
▁1015:	-12120
▁1018:	-12121
▁1020:	-12122
▁1021:	-12123
▁1023:	-12124
▁1024:	-12125
▁1025:	-12126
▁1028:	-12127
▁1030:	-12128
▁1031:	-12129
▁1033:	-12130
▁1035:	-12131
▁1036:	-12132
▁1040:	-12133
▁1041:	-12134
▁1043:	-12135
▁1044:	-12136
▁1045:	-12137
▁1048:	-12138
▁1049:	-12139
▁1050:	-12140
▁1055:	-12141
▁1057:	-12142
▁1060:	-12143
▁1061:	-12144
▁1062:	-12145
▁1065:	-12146
▁1068:	-12147
▁1074:	-12148
▁1077:	-12149
▁1078:	-12150
▁1081:	-12151
▁1082:	-12152
▁1086:	-12153
▁1090:	-12154
▁1091:	-12155
▁1092:	-12156
▁1098:	-12157
▁1099:	-12158
▁1102:	-12159
▁1108:	-12160
▁1113:	-12161
▁1116:	-12162
▁1117:	-12163
▁1118:	-12164
▁1119:	-12165
▁1123:	-12166
▁1126:	-12167
▁1131:	-12168
▁1132:	-12169
▁1135:	-12170
▁1140:	-12171
▁1147:	-12172
▁1150:	-12173
▁1151:	-12174
▁1154:	-12175
▁1158:	-12176
▁1159:	-12177
▁1160:	-12178
▁1161:	-12179
▁1166:	-12180
▁1167:	-12181
▁1170:	-12182
▁1171:	-12183
▁1172:	-12184
▁1177:	-12185
▁1180:	-12186
▁1181:	-12187
▁1182:	-12188
▁1188:	-12189
▁1193:	-12190
▁1194:	-12191
▁1195:	-12192
▁1196:	-12193
▁1197:	-12194
▁1198:	-12195
▁1201:	-12196
▁1202:	-12197
▁1205:	-12198
▁1206:	-12199
▁1207:	-12200
▁1213:	-12201
▁1220:	-12202
▁1228:	-12203
▁1233:	-12204
▁1234:	-12205
▁1240:	-12206
▁1241:	-12207
▁1242:	-12208
▁1246:	-12209
▁1248:	-12210
▁1249:	-12211
▁1253:	-12212
▁1256:	-12213
▁1262:	-12214
▁1267:	-12215
▁1268:	-12216
▁1274:	-12217
▁1278:	-12218
▁1279:	-12219
▁1281:	-12220
▁1283:	-12221
▁1293:	-12222
▁1294:	-12223
▁1296:	-12224
▁1316:	-12225
▁1318:	-12226
▁1321:	-12227
▁1322:	-12228
▁1323:	-12229
▁1329:	-12230
▁1337:	-12231
▁1340:	-12232
▁1342:	-12233
▁1347:	-12234
▁1348:	-12235
▁1349:	-12236
▁1351:	-12237
▁1354:	-12238
▁1355:	-12239
▁1358:	-12240
▁1361:	-12241
▁1363:	-12242
▁1366:	-12243
▁1370:	-12244
▁1371:	-12245
▁1372:	-12246
▁1374:	-12247
▁1375:	-12248
▁1377:	-12249
▁1378:	-12250
▁1379:	-12251
▁1380:	-12252
▁1384:	-12253
▁1386:	-12254
▁1390:	-12255
▁1391:	-12256
▁1392:	-12257
▁1394:	-12258
▁1395:	-12259
▁1400:	-12260
▁1404:	-12261
▁1405:	-12262
▁1408:	-12263
▁1410:	-12264
▁1420:	-12265
▁1422:	-12266
▁1426:	-12267
▁1433:	-12268
▁1440:	-12269
▁1444:	-12270
▁1445:	-12271
▁1449:	-12272
▁1455:	-12273
▁1461:	-12274
▁1464:	-12275
▁1471:	-12276
▁1476:	-12277
▁1480:	-12278
▁1485:	-12279
▁1492:	-12280
▁1495:	-12281
▁1496:	-12282
▁1500:	-12283
▁1511:	-12284
▁1513:	-12285
▁1515:	-12286
▁1521:	-12287
▁1526:	-12288
▁1537:	-12289
▁1543:	-12290
▁1547:	-12291
▁1548:	-12292
▁1549:	-12293
▁1550:	-12294
▁1670,	-12295
▁20%."	-12296
▁2800,	-12297
▁4000.	-12298
▁5,800	-12299
▁62000	-12300
▁7,600	-12301
▁apple	-12302
▁corey	-12303
▁cyber	-12304
▁david	-12305
▁hades	-12306
▁khoac	-12307
▁kurei	-12308
▁ngoáy	-12309
▁nhõng	-12310
▁paksa	-12311
▁phăng	-12312
▁poker	-12313
▁putra	-12314
▁qruân	-12315
▁quyện	-12316
▁salon	-12317
▁trành	-12318
▁xuồng	-12319
chivada	-12320
michael	-12321
▁10,500	-12322
▁1200%(	-12323
▁14,700	-12324
▁18,800	-12325
▁200(37	-12326
▁200(42	-12327
▁2000(8	-12328
▁2000(9	-12329
▁3000%,	-12330
▁6000(5	-12331
▁60000.	-12332
▁cronus	-12333
▁dotaro	-12334
▁hughes	-12335
▁konoha	-12336
▁mobius	-12337
▁mystra	-12338
▁pagani	-12339
▁tiralt	-12340
▁1280(12	-12341
▁200(425	-12342
▁6000(69	-12343
▁aranlos	-12344
▁bullock	-12345
▁chitton	-12346
▁gilbert	-12347
▁gilotto	-12348
▁kenreva	-12349
▁korsema	-12350
▁shotgun	-12351
▁simmons	-12352
."-------	-12353
▁200000(5	-12354
▁ultraman	-12355
▁virginia	-12356
▁theolenci	-12357
▁200000(349	-12358
▁200000(377	-12359
▁200000(385	-12360
▁smartphone	-12361
▁200000(1142	-12362
-5	-12363
0%	-12364
9%	-12365
bk	-12366
cg	-12367
dn	-12368
hỉ	-12369
mỗ	-12370
né	-12371
tể	-12372
vv	-12373
▁ỹ	-12374
!?"	-12375
(12	-12376
.”.	-12377
11,	-12378
110	-12379
25%	-12380
329	-12381
459	-12382
522	-12383
549	-12384
565	-12385
675	-12386
8%,	-12387
80.	-12388
asp	-12389
ben	-12390
bum	-12391
bão	-12392
bóp	-12393
bẹp	-12394
chà	-12395
cqu	-12396
dan	-12397
dạy	-12398
dấu	-12399
gra	-12400
gầy	-12401
khế	-12402
líu	-12403
mân	-12404
nại	-12405
nện	-12406
pha	-12407
pho	-12408
rel	-12409
rìu	-12410
syg	-12411
sói	-12412
sữa	-12413
thỏ	-12414
trử	-12415
tẩy	-12416
vai	-12417
vặn	-12418
vọt	-12419
».”	-12420
đóa	-12421
▁"0	-12422
▁%.	-12423
▁((	-12424
▁,.	-12425
▁-!	-12426
▁03	-12427
▁cg	-12428
▁dq	-12429
▁hẽ	-12430
▁hứ	-12431
▁mp	-12432
▁mĩ	-12433
▁oi	-12434
▁rô	-12435
▁tt	-12436
▁vr	-12437
▁vỉ	-12438
▁vọ	-12439
▁ày	-12440
▁đn	-12441
▁đư	-12442
▁ưb	-12443
▁ửu	-12444
!...	-12445
1987	-12446
75%,	-12447
aint	-12448
alin	-12449
arus	-12450
atri	-12451
bánh	-12452
chuế	-12453
chán	-12454
chít	-12455
cqué	-12456
cược	-12457
diên	-12458
dnmd	-12459
esir	-12460
esus	-12461
ette	-12462
ghen	-12463
giam	-12464
khen	-12465
khuê	-12466
liếc	-12467
làng	-12468
mino	-12469
more	-12470
nhấc	-12471
pals	-12472
phai	-12473
phun	-12474
roid	-12475
rung	-12476
skar	-12477
soái	-12478
suýt	-12479
thuê	-12480
thằn	-12481
thụy	-12482
trao	-12483
tung	-12484
tuấn	-12485
tách	-12486
york	-12487
▁()?	-12488
▁(50	-12489
▁(80	-12490
▁01:	-12491
▁1,7	-12492
▁14!	-12493
▁173	-12494
▁179	-12495
▁2,3	-12496
▁20:	-12497
▁211	-12498
▁238	-12499
▁247	-12500
▁248	-12501
▁31,	-12502
▁322	-12503
▁326	-12504
▁327	-12505
▁338	-12506
▁342	-12507
▁347	-12508
▁348	-12509
▁355	-12510
▁36%	-12511
▁366	-12512
▁373	-12513
▁395	-12514
▁398	-12515
▁399	-12516
▁4,2	-12517
▁465	-12518
▁468	-12519
▁492	-12520
▁499	-12521
▁5,6	-12522
▁572	-12523
▁578	-12524
▁6,6	-12525
▁6."	-12526
▁616	-12527
▁647	-12528
▁685	-12529
▁687	-12530
▁7)(	-12531
▁710	-12532
▁717	-12533
▁736	-12534
▁743	-12535
▁747	-12536
▁752	-12537
▁76,	-12538
▁762	-12539
▁789	-12540
▁79.	-12541
▁797	-12542
▁8."	-12543
▁816	-12544
▁828	-12545
▁853	-12546
▁88.	-12547
▁89]	-12548
▁9,9	-12549
▁996	-12550
▁?""	-12551
▁bìm	-12552
▁cãm	-12553
▁cỏn	-12554
▁cỡm	-12555
▁dan	-12556
▁dăn	-12557
▁gas	-12558
▁gor	-12559
▁gul	-12560
▁gun	-12561
▁hôt	-12562
▁kan	-12563
▁lap	-12564
▁làu	-12565
▁lép	-12566
▁lợp	-12567
▁mmm	-12568
▁nám	-12569
▁nạo	-12570
▁pro	-12571
▁red	-12572
▁sel	-12573
▁sứa	-12574
▁tró	-12575
▁tâu	-12576
▁tịt	-12577
▁đơp	-12578
▁ươn	-12579
1000%	-12580
20000	-12581
annon	-12582
boong	-12583
carol	-12584
chừng	-12585
duyệt	-12586
ongbe	-12587
phùng	-12588
rillo	-12589
roger	-12590
thuật	-12591
yndra	-12592
▁...,	-12593
▁0(36	-12594
▁10%)	-12595
▁105,	-12596
▁1060	-12597
▁1075	-12598
▁1079	-12599
▁110.	-12600
▁1110	-12601
▁1143	-12602
▁118:	-12603
▁12%.	-12604
▁1245	-12605
▁1324	-12606
▁1343	-12607
▁1395	-12608
▁1398	-12609
▁1648	-12610
▁1792	-12611
▁1801	-12612
▁1820	-12613
▁1840	-12614
▁1853	-12615
▁1890	-12616
▁1940	-12617
▁2389	-12618
▁240.	-12619
▁2641	-12620
▁284:	-12621
▁300-	-12622
▁307:	-12623
▁3123	-12624
▁316:	-12625
▁360:	-12626
▁361:	-12627
▁369:	-12628
▁387:	-12629
▁412:	-12630
▁423:	-12631
▁442:	-12632
▁463:	-12633
▁468:	-12634
▁480.	-12635
▁498:	-12636
▁587:	-12637
▁589:	-12638
▁613:	-12639
▁614:	-12640
▁620:	-12641
▁623:	-12642
▁626:	-12643
▁630:	-12644
▁632:	-12645
▁633:	-12646
▁634:	-12647
▁636:	-12648
▁642:	-12649
▁646:	-12650
▁653:	-12651
▁655:	-12652
▁656:	-12653
▁657:	-12654
▁661:	-12655
▁664:	-12656
▁666:	-12657
▁667:	-12658
▁677:	-12659
▁684:	-12660
▁689:	-12661
▁691:	-12662
▁693:	-12663
▁694:	-12664
▁695:	-12665
▁700:	-12666
▁702:	-12667
▁709:	-12668
▁712:	-12669
▁714:	-12670
▁715:	-12671
▁722:	-12672
▁724:	-12673
▁729:	-12674
▁734:	-12675
▁735:	-12676
▁738:	-12677
▁740:	-12678
▁742:	-12679
▁743:	-12680
▁746:	-12681
▁750:	-12682
▁753:	-12683
▁754:	-12684
▁759:	-12685
▁762:	-12686
▁763:	-12687
▁764:	-12688
▁766:	-12689
▁772:	-12690
▁773:	-12691
▁774:	-12692
▁777:	-12693
▁778:	-12694
▁7800	-12695
▁781:	-12696
▁783:	-12697
▁786:	-12698
▁787:	-12699
▁788:	-12700
▁794:	-12701
▁796:	-12702
▁797:	-12703
▁798:	-12704
▁80%!	-12705
▁800!	-12706
▁805:	-12707
▁808:	-12708
▁809:	-12709
▁810:	-12710
▁811:	-12711
▁812:	-12712
▁824:	-12713
▁830:	-12714
▁833:	-12715
▁837:	-12716
▁838:	-12717
▁839:	-12718
▁840:	-12719
▁845:	-12720
▁846:	-12721
▁847:	-12722
▁848:	-12723
▁849:	-12724
▁855:	-12725
▁859:	-12726
▁864:	-12727
▁865:	-12728
▁867:	-12729
▁868:	-12730
▁871:	-12731
▁874:	-12732
▁879:	-12733
▁8800	-12734
▁882:	-12735
▁885:	-12736
▁889:	-12737
▁898:	-12738
▁90%(	-12739
▁908:	-12740
▁910:	-12741
▁912:	-12742
▁914:	-12743
▁916:	-12744
▁921:	-12745
▁922:	-12746
▁926:	-12747
▁928:	-12748
▁931:	-12749
▁939:	-12750
▁941:	-12751
▁947:	-12752
▁949:	-12753
▁951:	-12754
▁952:	-12755
▁954:	-12756
▁962:	-12757
▁966:	-12758
▁969:	-12759
▁970:	-12760
▁978:	-12761
▁9800	-12762
▁980:	-12763
▁981:	-12764
▁982:	-12765
▁985:	-12766
▁99%,	-12767
▁990:	-12768
▁991:	-12769
▁996:	-12770
▁998:	-12771
▁biền	-12772
▁chét	-12773
▁chêm	-12774
▁chìu	-12775
▁cuôc	-12776
▁diệm	-12777
▁dora	-12778
▁gere	-12779
▁hoat	-12780
▁kasp	-12781
▁khóm	-12782
▁kiêt	-12783
▁lars	-12784
▁luẩn	-12785
▁lynn	-12786
▁maas	-12787
▁ngãi	-12788
▁nhúa	-12789
▁nuôt	-12790
▁phut	-12791
▁phịu	-12792
▁site	-12793
▁thuý	-12794
▁thẫn	-12795
▁tiêt	-12796
▁toss	-12797
▁trến	-12798
▁uỗng	-12799
▁xoải	-12800
▁điêc	-12801
20000,	-12802
30000,	-12803
atrice	-12804
giương	-12805
goblin	-12806
hodder	-12807
khuyên	-12808
khuyển	-12809
louise	-12810
naraku	-12811
nashor	-12812
nguyền	-12813
ngưỡng	-12814
▁"666!	-12815
▁0(175	-12816
▁0(179	-12817
▁0(463	-12818
▁0.01%	-12819
▁100%(	-12820
▁1003:	-12821
▁1004:	-12822
▁1005:	-12823
▁10086	-12824
▁1009:	-12825
▁1014:	-12826
▁1016:	-12827
▁1017:	-12828
▁1022:	-12829
▁1026:	-12830
▁1027:	-12831
▁1029:	-12832
▁1032:	-12833
▁1037:	-12834
▁1038:	-12835
▁1039:	-12836
▁1047:	-12837
▁1051:	-12838
▁1053:	-12839
▁1054:	-12840
▁1058:	-12841
▁1059:	-12842
▁1063:	-12843
▁1064:	-12844
▁1066:	-12845
▁1067:	-12846
▁1069:	-12847
▁1070:	-12848
▁1071:	-12849
▁1072:	-12850
▁1073:	-12851
▁1075:	-12852
▁1076:	-12853
▁1079:	-12854
▁1080:	-12855
▁1083:	-12856
▁1084:	-12857
▁1087:	-12858
▁1088:	-12859
▁1093:	-12860
▁1097:	-12861
▁1100,	-12862
▁1100:	-12863
▁1101:	-12864
▁1104:	-12865
▁1105:	-12866
▁1106:	-12867
▁1107:	-12868
▁1110:	-12869
▁1111:	-12870
▁1115:	-12871
▁1120:	-12872
▁1124:	-12873
▁1129:	-12874
▁1130:	-12875
▁1133:	-12876
▁1145:	-12877
▁1146:	-12878
▁1148:	-12879
▁1152:	-12880
▁1153:	-12881
▁1155:	-12882
▁1164:	-12883
▁1165:	-12884
▁1169:	-12885
▁1176:	-12886
▁1178:	-12887
▁1183:	-12888
▁1184:	-12889
▁1185:	-12890
▁1187:	-12891
▁1189:	-12892
▁1190:	-12893
▁1199:	-12894
▁1204:	-12895
▁1210:	-12896
▁1219:	-12897
▁1226:	-12898
▁1229:	-12899
▁1230:	-12900
▁1236:	-12901
▁1239:	-12902
▁1252:	-12903
▁1264:	-12904
▁1270:	-12905
▁1299:	-12906
▁1300:	-12907
▁1301:	-12908
▁1306:	-12909
▁1310:	-12910
▁1319:	-12911
▁1325:	-12912
▁1335:	-12913
▁1341:	-12914
▁1344:	-12915
▁1345:	-12916
▁1360:	-12917
▁1364:	-12918
▁1368:	-12919
▁1376:	-12920
▁1381:	-12921
▁1382:	-12922
▁1385:	-12923
▁1387:	-12924
▁1388:	-12925
▁1396:	-12926
▁1397:	-12927
▁1398:	-12928
▁1401:	-12929
▁1402:	-12930
▁1403:	-12931
▁1407:	-12932
▁1409:	-12933
▁1411:	-12934
▁1412:	-12935
▁1414:	-12936
▁1416:	-12937
▁1419:	-12938
▁1421:	-12939
▁1423:	-12940
▁1425:	-12941
▁1428:	-12942
▁1429:	-12943
▁1430:	-12944
▁1434:	-12945
▁1435:	-12946
▁1436:	-12947
▁1437:	-12948
▁1438:	-12949
▁1442:	-12950
▁1450:	-12951
▁1453:	-12952
▁1457:	-12953
▁1459:	-12954
▁1463:	-12955
▁1473:	-12956
▁1474:	-12957
▁1477:	-12958
▁1482:	-12959
▁1483:	-12960
▁1486:	-12961
▁1487:	-12962
▁1488:	-12963
▁1490:	-12964
▁1493:	-12965
▁1494:	-12966
▁1498:	-12967
▁1499:	-12968
▁150%(	-12969
▁1500%	-12970
▁1501:	-12971
▁1502:	-12972
▁1503:	-12973
▁1506:	-12974
▁1508:	-12975
▁1512:	-12976
▁1514:	-12977
▁1518:	-12978
▁1522:	-12979
▁1528:	-12980
▁1531:	-12981
▁1532:	-12982
▁1533:	-12983
▁1535:	-12984
▁1536:	-12985
▁1539:	-12986
▁1540:	-12987
▁1541:	-12988
▁1542:	-12989
▁1545:	-12990
▁1546:	-12991
▁160%.	-12992
▁1671,	-12993
▁1673,	-12994
▁2,300	-12995
▁2020.	-12996
▁24000	-12997
▁3000%	-12998
▁37.5%	-12999
▁4,100	-13000
▁44000	-13001
▁4500,	-13002
▁5500,	-13003
▁7,500	-13004
▁7500,	-13005
▁aesir	-13006
▁ailog	-13007
▁album	-13008
▁bloor	-13009
▁clark	-13010
▁curra	-13011
▁nghỉm	-13012
▁phach	-13013
▁raina	-13014
▁ricky	-13015
▁thoan	-13016
▁varus	-13017
acheron	-13018
adeline	-13019
renalin	-13020
shylock	-13021
tiktata	-13022
▁1200%.	-13023
▁15000,	-13024
▁17,500	-13025
▁5000%.	-13026
▁50500.	-13027
▁baccar	-13028
▁dacqué	-13029
▁domino	-13030
▁gundam	-13031
▁kaiser	-13032
▁terres	-13033
▁trranh	-13034
caroline	-13035
thanatos	-13036
▁200(517	-13037
▁2000(11	-13038
▁android	-13039
▁geraint	-13040
▁kaspers	-13041
▁odyssey	-13042
▁0.001%),	-13043
▁1280(144	-13044
▁carrillo	-13045
▁clemente	-13046
▁highmore	-13047
▁phuongbe	-13048
stratholme	-13049
▁metruyenchu	-13050
!]	-13051
!«	-13052
"!	-13053
)'	-13054
-,	-13055
-0	-13056
.[	-13057
?)	-13058
gb	-13059
gả	-13060
hở	-13061
lò	-13062
lơ	-13063
má	-13064
nỗ	-13065
sb	-13066
sl	-13067
uu	-13068
vỏ	-13069
đn	-13070
▁ỳ	-13071
'."	-13072
).”	-13073
001	-13074
002	-13075
005	-13076
12.	-13077
15.	-13078
154	-13079
169	-13080
240	-13081
3!"	-13082
391	-13083
396	-13084
397	-13085
420	-13086
50"	-13087
526	-13088
548	-13089
564	-13090
60.	-13091
642	-13092
75,	-13093
864	-13094
875	-13095
88%	-13096
ail	-13097
aks	-13098
ama	-13099
bạc	-13100
bối	-13101
cạn	-13102
cớm	-13103
ddo	-13104
dát	-13105
dãy	-13106
dầu	-13107
ega	-13108
ggy	-13109
gos	-13110
gãy	-13111
hám	-13112
ill	-13113
lau	-13114
lio	-13115
lái	-13116
lấn	-13117
lẫm	-13118
lối	-13119
mar	-13120
mực	-13121
ngọ	-13122
nhô	-13123
nỗi	-13124
phô	-13125
quỹ	-13126
roy	-13127
rào	-13128
sen	-13129
sil	-13130
sss	-13131
sóc	-13132
sỏa	-13133
thợ	-13134
tic	-13135
trễ	-13136
trữ	-13137
túy	-13138
tạc	-13139
vên	-13140
vớt	-13141
xóa	-13142
···	-13143
đảm	-13144
ươt	-13145
▁0-	-13146
▁3]	-13147
▁9!	-13148
▁9(	-13149
▁ae	-13150
▁dá	-13151
▁dử	-13152
▁hn	-13153
▁lỳ	-13154
▁os	-13155
▁qi	-13156
▁ré	-13157
▁đĩ	-13158
▁ột	-13159
))))	-13160
..,.	-13161
101.	-13162
200,	-13163
30%.	-13164
35%.	-13165
80%,	-13166
???”	-13167
alth	-13168
bạng	-13169
cars	-13170
chil	-13171
chùy	-13172
cuồn	-13173
cưới	-13174
cổng	-13175
eibo	-13176
hừng	-13177
kara	-13178
liệu	-13179
lưng	-13180
lưỡi	-13181
lằng	-13182
lồng	-13183
mann	-13184
mars	-13185
mela	-13186
ngan	-13187
ngạn	-13188
ngọt	-13189
nháo	-13190
nhện	-13191
nick	-13192
punk	-13193
quot	-13194
quát	-13195
riếp	-13196
rách	-13197
sính	-13198
tang	-13199
thuỷ	-13200
thám	-13201
tiếc	-13202
trói	-13203
tươi	-13204
▁"1,	-13205
▁"80	-13206
▁(17	-13207
▁(35	-13208
▁(45	-13209
▁(48	-13210
▁(88	-13211
▁-)-	-13212
▁0(9	-13213
▁00.	-13214
▁007	-13215
▁183	-13216
▁193	-13217
▁2-3	-13218
▁20(	-13219
▁20-	-13220
▁226	-13221
▁229	-13222
▁249	-13223
▁282	-13224
▁298	-13225
▁313	-13226
▁314	-13227
▁335	-13228
▁349	-13229
▁376	-13230
▁378	-13231
▁39,	-13232
▁4%,	-13233
▁4,0	-13234
▁4."	-13235
▁405	-13236
▁41,	-13237
▁414	-13238
▁439	-13239
▁45.	-13240
▁473	-13241
▁476	-13242
▁5,5	-13243
▁5,7	-13244
▁507	-13245
▁516	-13246
▁517	-13247
▁524	-13248
▁542	-13249
▁543	-13250
▁587	-13251
▁589	-13252
▁595	-13253
▁6,5	-13254
▁607	-13255
▁62,	-13256
▁63.	-13257
▁646	-13258
▁677	-13259
▁68,	-13260
▁7,4	-13261
▁7-9	-13262
▁713	-13263
▁716	-13264
▁745	-13265
▁756	-13266
▁76.	-13267
▁765	-13268
▁767	-13269
▁769	-13270
▁776	-13271
▁778	-13272
▁787	-13273
▁801	-13274
▁832	-13275
▁833	-13276
▁834	-13277
▁87,	-13278
▁873	-13279
▁88,	-13280
▁886	-13281
▁894	-13282
▁90]	-13283
▁91,	-13284
▁947	-13285
▁976	-13286
▁99,	-13287
▁ale	-13288
▁bcl	-13289
▁bấn	-13290
▁cộm	-13291
▁cợm	-13292
▁doc	-13293
▁dép	-13294
▁dặt	-13295
▁har	-13296
▁hoe	-13297
▁hoè	-13298
▁hôc	-13299
▁ian	-13300
▁iện	-13301
▁lac	-13302
▁lem	-13303
▁lât	-13304
▁lốt	-13305
▁lụm	-13306
▁lụn	-13307
▁muc	-13308
▁mưc	-13309
▁mỏm	-13310
▁nhỡ	-13311
▁nya	-13312
▁núc	-13313
▁oái	-13314
▁pok	-13315
▁rôt	-13316
▁rận	-13317
▁rổi	-13318
▁shu	-13319
▁sảm	-13320
▁sẩm	-13321
▁sến	-13322
▁vầy	-13323
▁xeo	-13324
▁xuc	-13325
▁xuể	-13326
▁xàm	-13327
▁xới	-13328
▁you	-13329
▁đáu	-13330
▁đèo	-13331
▁đờm	-13332
▁đủi	-13333
!"...	-13334
(4000	-13335
)(100	-13336
...",	-13337
1,000	-13338
2000,	-13339
cedes	-13340
ddock	-13341
dolph	-13342
grade	-13343
lygos	-13344
nghẹn	-13345
phiêu	-13346
riêng	-13347
thước	-13348
tròng	-13349
xiềng	-13350
đoàng	-13351
▁"150	-13352
▁"151	-13353
▁"5-5	-13354
▁(50%	-13355
▁0(27	-13356
▁0(31	-13357
▁1042	-13358
▁1070	-13359
▁1078	-13360
▁1084	-13361
▁1089	-13362
▁109.	-13363
▁1090	-13364
▁1108	-13365
▁1114	-13366
▁1123	-13367
▁1145	-13368
▁1150	-13369
▁1156	-13370
▁1166	-13371
▁1170	-13372
▁1233	-13373
▁1256	-13374
▁1258	-13375
▁1318	-13376
▁1319	-13377
▁1364	-13378
▁140.	-13379
▁1464	-13380
▁1476	-13381
▁1550	-13382
▁1588	-13383
▁16."	-13384
▁1642	-13385
▁1682	-13386
▁1755	-13387
▁1780	-13388
▁1811	-13389
▁1850	-13390
▁1854	-13391
▁1856	-13392
▁189,	-13393
▁20%"	-13394
▁220.	-13395
▁276:	-13396
▁286:	-13397
▁290%	-13398
▁2900	-13399
▁30%!	-13400
▁3100	-13401
▁3152	-13402
▁360.	-13403
▁365:	-13404
▁3800	-13405
▁3888	-13406
▁40%"	-13407
▁40(,	-13408
▁404:	-13409
▁4166	-13410
▁431:	-13411
▁438:	-13412
▁4400	-13413
▁509:	-13414
▁5100	-13415
▁512:	-13416
▁514:	-13417
▁5150	-13418
▁560(	-13419
▁578:	-13420
▁5800	-13421
▁59."	-13422
▁6%),	-13423
▁605:	-13424
▁621:	-13425
▁622:	-13426
▁625:	-13427
▁639:	-13428
▁644:	-13429
▁651:	-13430
▁6600	-13431
▁660:	-13432
▁666.	-13433
▁669:	-13434
▁676:	-13435
▁685:	-13436
▁699:	-13437
▁70%!	-13438
▁70%)	-13439
▁708:	-13440
▁711:	-13441
▁737:	-13442
▁739:	-13443
▁745:	-13444
▁755:	-13445
▁757:	-13446
▁7600	-13447
▁769:	-13448
▁770:	-13449
▁785:	-13450
▁793:	-13451
▁800:	-13452
▁802:	-13453
▁815:	-13454
▁816:	-13455
▁820:	-13456
▁822:	-13457
▁825:	-13458
▁827:	-13459
▁828:	-13460
▁829:	-13461
▁831:	-13462
▁853:	-13463
▁857:	-13464
▁858:	-13465
▁860:	-13466
▁880:	-13467
▁900:	-13468
▁919:	-13469
▁924:	-13470
▁927:	-13471
▁933:	-13472
▁937:	-13473
▁9388	-13474
▁950,	-13475
▁961:	-13476
▁973:	-13477
▁974:	-13478
▁984:	-13479
▁99%.	-13480
▁alas	-13481
▁anny	-13482
▁dast	-13483
▁dela	-13484
▁disa	-13485
▁doug	-13486
▁dren	-13487
▁giãu	-13488
▁gồng	-13489
▁huơi	-13490
▁khep	-13491
▁khãy	-13492
▁kree	-13493
▁lênh	-13494
▁ment	-13495
▁mere	-13496
▁merl	-13497
▁neon	-13498
▁ngot	-13499
▁ngâp	-13500
▁ngấu	-13501
▁nhôm	-13502
▁niệu	-13503
▁norg	-13504
▁pham	-13505
▁phấm	-13506
▁phẩn	-13507
▁pose	-13508
▁quây	-13509
▁quại	-13510
▁quắn	-13511
▁quằn	-13512
▁thụt	-13513
▁trệt	-13514
▁trỗi	-13515
▁trợt	-13516
▁xoèn	-13517
▁yier	-13518
▁yyds	-13519
▁đếch	-13520
▁“600	-13521
.-----	-13522
10000.	-13523
belega	-13524
caesar	-13525
coolin	-13526
duriel	-13527
hiahia	-13528
lucius	-13529
mannim	-13530
palmer	-13531
terran	-13532
▁"7000	-13533
▁-10%.	-13534
▁0(180	-13535
▁0(182	-13536
▁0(233	-13537
▁0(385	-13538
▁0(388	-13539
▁0(398	-13540
▁0(404	-13541
▁0(440	-13542
▁1,112	-13543
▁1,350	-13544
▁100%"	-13545
▁1000!	-13546
▁1042:	-13547
▁1052:	-13548
▁1056:	-13549
▁1085:	-13550
▁1089:	-13551
▁1094:	-13552
▁1095:	-13553
▁1096:	-13554
▁1103:	-13555
▁1109:	-13556
▁1111.	-13557
▁1121:	-13558
▁1125:	-13559
▁1134:	-13560
▁1168:	-13561
▁1237:	-13562
▁1238:	-13563
▁1254:	-13564
▁1353:	-13565
▁1362:	-13566
▁1365:	-13567
▁1367:	-13568
▁1369:	-13569
▁1373:	-13570
▁1383:	-13571
▁1389:	-13572
▁1400%	-13573
▁1406:	-13574
▁1413:	-13575
▁1415:	-13576
▁1418:	-13577
▁1424:	-13578
▁1431:	-13579
▁1432:	-13580
▁1439:	-13581
▁1443:	-13582
▁1446:	-13583
▁1447:	-13584
▁1451:	-13585
▁1452:	-13586
▁1454:	-13587
▁1456:	-13588
▁1458:	-13589
▁1462:	-13590
▁1466:	-13591
▁1467:	-13592
▁1475:	-13593
▁1478:	-13594
▁1479:	-13595
▁1484:	-13596
▁1491:	-13597
▁1504:	-13598
▁1505:	-13599
▁1507:	-13600
▁1509:	-13601
▁1517:	-13602
▁1523:	-13603
▁1527:	-13604
▁1534:	-13605
▁1544:	-13606
▁1551:	-13607
▁1552:	-13608
▁1554:	-13609
▁1555:	-13610
▁1556:	-13611
▁1557:	-13612
▁1558:	-13613
▁1560:	-13614
▁1563:	-13615
▁1565:	-13616
▁1568:	-13617
▁1569:	-13618
▁1571:	-13619
▁1572:	-13620
▁1573:	-13621
▁1575:	-13622
▁1576:	-13623
▁1577:	-13624
▁1578:	-13625
▁1581:	-13626
▁1585:	-13627
▁1587:	-13628
▁1589:	-13629
▁1590:	-13630
▁1591:	-13631
▁1594:	-13632
▁180%.	-13633
▁19200	-13634
▁2,100	-13635
▁2,500	-13636
▁200(9	-13637
▁2100,	-13638
▁250%(	-13639
▁250%.	-13640
▁3,200	-13641
▁300%!	-13642
▁3030.	-13643
▁700%(	-13644
▁achil	-13645
▁auers	-13646
▁beard	-13647
▁canon	-13648
▁chess	-13649
▁chếnh	-13650
▁curry	-13651
▁disco	-13652
▁ellie	-13653
▁gerry	-13654
▁giạng	-13655
▁hoach	-13656
▁karel	-13657
▁laura	-13658
▁loằng	-13659
▁luông	-13660
▁moaks	-13661
▁muỗng	-13662
▁nhăng	-13663
▁olena	-13664
▁phành	-13665
▁phạch	-13666
▁phỉnh	-13667
▁selma	-13668
▁super	-13669
▁suyễn	-13670
▁truật	-13671
belinda	-13672
carsley	-13673
douglas	-13674
lisette	-13675
randall	-13676
vertise	-13677
▁0.0000	-13678
▁11,000	-13679
▁1500%.	-13680
▁1600%,	-13681
▁200(10	-13682
▁200(80	-13683
▁200(90	-13684
▁20200.	-13685
▁25000,	-13686
▁29,000	-13687
▁320(18	-13688
▁35,000	-13689
▁50000.	-13690
▁coolio	-13691
▁gorlos	-13692
▁laurel	-13693
▁ngoằng	-13694
▁nàyhưu	-13695
▁syndra	-13696
▁thuông	-13697
▁thuởng	-13698
▁đóoanh	-13699
)(100%)]	-13700
?”......	-13701
eckehart	-13702
▁0.01%),	-13703
▁1280(10	-13704
▁200(518	-13705
▁2000(10	-13706
▁2000(19	-13707
▁alastor	-13708
▁andolph	-13709
▁bilisis	-13710
▁drenthe	-13711
▁malygos	-13712
▁mengnan	-13713
▁pokemon	-13714
▁upgrade	-13715
lancaster	-13716
▁100,000.	-13717
▁2000(144	-13718
▁6000(680	-13719
▁beatrice	-13720
▁disaster	-13721
▁meredith	-13722
evangelion	-13723
▁200000(10	-13724
▁advertise	-13725
▁bluetooth	-13726
▁cyberpunk	-13727
▁norgannon	-13728
▁200000(233	-13729
▁200000(234	-13730
▁200000(380	-13731
."----------	-13732
▁tronlisette	-13733
%)	-13734
(4	-13735
2%	-13736
2(	-13737
3)	-13738
:)	-13739
bó	-13740
kề	-13741
mp	-13742
mô	-13743
mờ	-13744
ty	-13745
xé	-13746
đả	-13747
ỡm	-13748
"."	-13749
(2.	-13750
,."	-13751
.."	-13752
..,	-13753
.2:	-13754
007	-13755
008	-13756
010	-13757
10)	-13758
125	-13759
136	-13760
151	-13761
165	-13762
170	-13763
180	-13764
207	-13765
209	-13766
226	-13767
295	-13768
326	-13769
366	-13770
369	-13771
40%	-13772
40.	-13773
451	-13774
50)	-13775
529	-13776
540	-13777
6%,	-13778
672	-13779
70%	-13780
76%	-13781
822	-13782
863	-13783
888	-13784
961	-13785
98.	-13786
adc	-13787
all	-13788
aul	-13789
bgm	-13790
bin	-13791
bol	-13792
bom	-13793
bậc	-13794
cac	-13795
ces	-13796
cúc	-13797
cơn	-13798
cổn	-13799
dor	-13800
dốc	-13801
eel	-13802
eul	-13803
eve	-13804
góp	-13805
gốm	-13806
hun	-13807
hảm	-13808
hắt	-13809
hừm	-13810
iby	-13811
igu	-13812
ini	-13813
ins	-13814
lit	-13815
liu	-13816
lớp	-13817
mao	-13818
mãn	-13819
móc	-13820
nah	-13821
nao	-13822
ned	-13823
ngớ	-13824
nắp	-13825
pia	-13826
pli	-13827
rét	-13828
rắm	-13829
rộm	-13830
say	-13831
sửu	-13832
ten	-13833
toa	-13834
tom	-13835
top	-13836
trù	-13837
tưu	-13838
tồi	-13839
uro	-13840
ven	-13841
váy	-13842
xoa	-13843
xét	-13844
đài	-13845
đồn	-13846
ướu	-13847
ểnh	-13848
”.”	-13849
▁(-	-13850
▁-0	-13851
▁.·	-13852
▁0:	-13853
▁:)	-13854
▁=?	-13855
▁]:	-13856
▁bở	-13857
▁ci	-13858
▁dg	-13859
▁et	-13860
▁gc	-13861
▁gd	-13862
▁hĩ	-13863
▁ll	-13864
▁mr	-13865
▁nế	-13866
▁nị	-13867
▁tg	-13868
▁ur	-13869
▁vậ	-13870
▁vỹ	-13871
▁đạ	-13872
▁ật	-13873
▁ỡm	-13874
▁“5	-13875
"...	-13876
(100	-13877
.""«	-13878
000!	-13879
100(	-13880
150%	-13881
200"	-13882
45%,	-13883
75%.	-13884
amen	-13885
bbit	-13886
beta	-13887
breu	-13888
bury	-13889
chad	-13890
ches	-13891
chảy	-13892
chụp	-13893
cảng	-13894
cống	-13895
dell	-13896
dâng	-13897
eole	-13898
este	-13899
gert	-13900
giảo	-13901
giẫm	-13902
giỏi	-13903
hihu	-13904
kasp	-13905
kedo	-13906
klee	-13907
loan	-13908
loli	-13909
lymp	-13910
maia	-13911
miểu	-13912
mmel	-13913
muôn	-13914
màng	-13915
naga	-13916
nghé	-13917
ngục	-13918
ngựa	-13919
nắng	-13920
ohto	-13921
pphi	-13922
quin	-13923
reat	-13924
sừng	-13925
tháo	-13926
thây	-13927
tick	-13928
tưng	-13929
uyin	-13930
vàng	-13931
xedo	-13932
điêm	-13933
điển	-13934
đàng	-13935
đặng	-13936
▁"1.	-13937
▁"19	-13938
▁"25	-13939
▁"3,	-13940
▁"7,	-13941
▁"72	-13942
▁(32	-13943
▁(37	-13944
▁0(8	-13945
▁1!"	-13946
▁1-1	-13947
▁10]	-13948
▁12(	-13949
▁15-	-13950
▁16(	-13951
▁177	-13952
▁2,1	-13953
▁21%	-13954
▁24%	-13955
▁25(	-13956
▁318	-13957
▁32.	-13958
▁332	-13959
▁354	-13960
▁363	-13961
▁367	-13962
▁374	-13963
▁377	-13964
▁39.	-13965
▁391	-13966
▁4%.	-13967
▁406	-13968
▁408	-13969
▁415	-13970
▁426	-13971
▁433	-13972
▁445	-13973
▁457	-13974
▁46,	-13975
▁469	-13976
▁49.	-13977
▁496	-13978
▁50-	-13979
▁502	-13980
▁503	-13981
▁508	-13982
▁52.	-13983
▁522	-13984
▁547	-13985
▁552	-13986
▁555	-13987
▁593	-13988
▁597	-13989
▁6,7	-13990
▁6,9	-13991
▁602	-13992
▁622	-13993
▁623	-13994
▁627	-13995
▁632	-13996
▁641	-13997
▁643	-13998
▁655	-13999
▁663	-14000
▁67,	-14001
▁679	-14002
▁686	-14003
▁7%.	-14004
▁7,8	-14005
▁701	-14006
▁704	-14007
▁707	-14008
▁71.	-14009
▁718	-14010
▁721	-14011
▁727	-14012
▁737	-14013
▁74,	-14014
▁763	-14015
▁77.	-14016
▁772	-14017
▁775	-14018
▁781	-14019
▁783	-14020
▁79,	-14021
▁8,5	-14022
▁8,9	-14023
▁817	-14024
▁82,	-14025
▁839	-14026
▁843	-14027
▁855	-14028
▁86.	-14029
▁876	-14030
▁877	-14031
▁908	-14032
▁933	-14033
▁94.	-14034
▁943	-14035
▁977	-14036
▁985	-14037
▁997	-14038
▁ava	-14039
▁bep	-14040
▁bụp	-14041
▁bửa	-14042
▁chõ	-14043
▁chổ	-14044
▁cpu	-14045
▁cup	-14046
▁cúm	-14047
▁dna	-14048
▁dóa	-14049
▁dúm	-14050
▁dất	-14051
▁dẫu	-14052
▁get	-14053
▁ghe	-14054
▁hut	-14055
▁hôp	-14056
▁hõm	-14057
▁hặc	-14058
▁iên	-14059
▁kẽm	-14060
▁lat	-14061
▁lào	-14062
▁mẩu	-14063
▁nhạ	-14064
▁nâm	-14065
▁nẹp	-14066
▁phớ	-14067
▁pia	-14068
▁plè	-14069
▁ráy	-14070
▁rắt	-14071
▁rức	-14072
▁sei	-14073
▁sno	-14074
▁ste	-14075
▁sut	-14076
▁syg	-14077
▁sắn	-14078
▁teo	-14079
▁trể	-14080
▁···	-14081
▁đôt	-14082
▁đật	-14083
▁đỉa	-14084
▁ảng	-14085
▁“30	-14086
,....	-14087
3000,	-14088
6000,	-14089
allen	-14090
artes	-14091
audra	-14092
aulby	-14093
bella	-14094
buggy	-14095
duyên	-14096
edith	-14097
ibyou	-14098
igure	-14099
lesly	-14100
lilia	-14101
logne	-14102
loren	-14103
nhiễu	-14104
rankl	-14105
reese	-14106
riken	-14107
savas	-14108
soros	-14109
thiển	-14110
thiệt	-14111
thuẫn	-14112
tráng	-14113
trạch	-14114
▁"900	-14115
▁(150	-14116
▁(256	-14117
▁000.	-14118
▁0023	-14119
▁10,0	-14120
▁100]	-14121
▁101,	-14122
▁102,	-14123
▁1030	-14124
▁1058	-14125
▁1061	-14126
▁1063	-14127
▁1104	-14128
▁1105	-14129
▁1112	-14130
▁1141	-14131
▁1148	-14132
▁115.	-14133
▁1165	-14134
▁1167	-14135
▁121,	-14136
▁1224	-14137
▁1252	-14138
▁1254	-14139
▁1267	-14140
▁1287	-14141
▁13.5	-14142
▁1314	-14143
▁1346	-14144
▁1358	-14145
▁1362	-14146
▁1363	-14147
▁1365	-14148
▁1389	-14149
▁14."	-14150
▁1412	-14151
▁1485	-14152
▁1579	-14153
▁1580	-14154
▁1644	-14155
▁1647	-14156
▁1650	-14157
▁1653	-14158
▁1657	-14159
▁1666	-14160
▁1681	-14161
▁17."	-14162
▁1796	-14163
▁1799	-14164
▁18%.	-14165
▁1810	-14166
▁1855	-14167
▁1906	-14168
▁1980	-14169
▁1990	-14170
▁2025	-14171
▁2165	-14172
▁2340	-14173
▁2374	-14174
▁24%.	-14175
▁2410	-14176
▁250.	-14177
▁2650	-14178
▁2873	-14179
▁30,6	-14180
▁300!	-14181
▁3333	-14182
▁43,4	-14183
▁4320	-14184
▁480,	-14185
▁520.	-14186
▁560.	-14187
▁598:	-14188
▁60%!	-14189
▁615:	-14190
▁627:	-14191
▁6300	-14192
▁648:	-14193
▁6520	-14194
▁6560	-14195
▁666!	-14196
▁671:	-14197
▁675:	-14198
▁678:	-14199
▁680:	-14200
▁6900	-14201
▁697:	-14202
▁703:	-14203
▁728:	-14204
▁756:	-14205
▁782:	-14206
▁792:	-14207
▁80(6	-14208
▁832:	-14209
▁8500	-14210
▁873:	-14211
▁8978	-14212
▁900%	-14213
▁906:	-14214
▁923:	-14215
▁932:	-14216
▁95%,	-14217
▁968:	-14218
▁987:	-14219
▁9887	-14220
▁blue	-14221
▁bull	-14222
▁burn	-14223
▁buôi	-14224
▁bướu	-14225
▁bảnh	-14226
▁chuế	-14227
▁chản	-14228
▁chấc	-14229
▁chộn	-14230
▁coca	-14231
▁doll	-14232
▁doạn	-14233
▁dộng	-14234
▁elly	-14235
▁gaso	-14236
▁giac	-14237
▁giập	-14238
▁giắt	-14239
▁hửng	-14240
▁kesi	-14241
▁khăc	-14242
▁khấm	-14243
▁khắt	-14244
▁link	-14245
▁lohr	-14246
▁lươt	-14247
▁lườn	-14248
▁maat	-14249
▁mari	-14250
▁name	-14251
▁nhãm	-14252
▁phui	-14253
▁phực	-14254
▁ross	-14255
▁sear	-14256
▁taxi	-14257
▁thit	-14258
▁thót	-14259
▁trui	-14260
▁đạng	-14261
ampunk	-14262
durant	-14263
keting	-14264
llagen	-14265
nguyễn	-14266
nsbury	-14267
phường	-14268
pphire	-14269
thrall	-14270
vannah	-14271
▁0(157	-14272
▁0(170	-14273
▁0(198	-14274
▁0(205	-14275
▁0(391	-14276
▁0(458	-14277
▁1,080	-14278
▁1,650	-14279
▁1,675	-14280
▁100%)	-14281
▁1002:	-14282
▁1112:	-14283
▁1114:	-14284
▁1122:	-14285
▁1352:	-14286
▁1356:	-14287
▁1357:	-14288
▁1417:	-14289
▁1427:	-14290
▁1448:	-14291
▁1460:	-14292
▁1468:	-14293
▁1470:	-14294
▁1481:	-14295
▁1497:	-14296
▁1529:	-14297
▁1559:	-14298
▁1561:	-14299
▁1562:	-14300
▁1564:	-14301
▁1567:	-14302
▁1570:	-14303
▁1574:	-14304
▁1579:	-14305
▁1580:	-14306
▁1584:	-14307
▁1588:	-14308
▁1593:	-14309
▁1595:	-14310
▁1596:	-14311
▁1597:	-14312
▁1599:	-14313
▁1600:	-14314
▁1601:	-14315
▁1604:	-14316
▁1605:	-14317
▁1609:	-14318
▁1613:	-14319
▁1615:	-14320
▁1616:	-14321
▁1618:	-14322
▁1619:	-14323
▁1621:	-14324
▁1622:	-14325
▁1624:	-14326
▁1625:	-14327
▁1626:	-14328
▁1628:	-14329
▁1630:	-14330
▁1632:	-14331
▁1633:	-14332
▁1635:	-14333
▁1637:	-14334
▁1638:	-14335
▁1639:	-14336
▁1640:	-14337
▁1646:	-14338
▁1647:	-14339
▁1648:	-14340
▁1649:	-14341
▁1650:	-14342
▁1651:	-14343
▁1653:	-14344
▁1654:	-14345
▁1656:	-14346
▁1659:	-14347
▁1799:	-14348
▁1850:	-14349
▁1933:	-14350
▁2,200	-14351
▁2,400	-14352
▁200."	-14353
▁21000	-14354
▁28800	-14355
▁3,600	-14356
▁3,700	-14357
▁30%),	-14358
▁4,700	-14359
▁40000	-14360
▁50%."	-14361
▁60600	-14362
▁7,780	-14363
▁80(12	-14364
▁8500,	-14365
▁900%(	-14366
▁99.9%	-14367
▁ampli	-14368
▁amuro	-14369
▁anten	-14370
▁arlag	-14371
▁chuun	-14372
▁chược	-14373
▁cưởng	-14374
▁email	-14375
▁great	-14376
▁guise	-14377
▁hoãng	-14378
▁kanto	-14379
▁khuây	-14380
▁macon	-14381
▁micro	-14382
▁nghẹt	-14383
▁ngoéo	-14384
▁nguẩy	-14385
▁nhũng	-14386
▁nàyầm	-14387
▁olymp	-14388
▁pháng	-14389
▁pulit	-14390
▁rolla	-14391
▁store	-14392
▁thoán	-14393
▁thưng	-14394
!......	-14395
120000,	-14396
600000,	-14397
barnett	-14398
chester	-14399
eration	-14400
kaspers	-14401
klatter	-14402
renesas	-14403
saatchi	-14404
▁(15000	-14405
▁0.5%),	-14406
▁11000,	-14407
▁1300%,	-14408
▁160(15	-14409
▁28,000	-14410
▁3000%.	-14411
▁320(28	-14412
▁4000%.	-14413
▁avatar	-14414
▁barbie	-14415
▁combat	-14416
▁creole	-14417
▁damage	-14418
▁douyin	-14419
▁hobbit	-14420
▁kaulby	-14421
▁nghễnh	-14422
▁nhương	-14423
▁nàyong	-14424
▁qidian	-14425
▁rommel	-14426
▁tuxedo	-14427
▁······	-14428
."------	-14429
atlantis	-14430
truyenyy	-14431
▁.......	-14432
▁200(307	-14433
▁200(459	-14434
▁200(519	-14435
▁cologne	-14436
▁hallsil	-14437
▁hamster	-14438
▁kiddock	-14439
▁plastic	-14440
▁trieste	-14441
▁1010000.	-14442
▁1280(110	-14443
▁150.000,	-14444
▁2000(130	-14445
▁2000(195	-14446
▁collagen	-14447
▁sapphire	-14448
▁savannah	-14449
▁shuriken	-14450
----------	-14451
▁2000(1108	-14452
▁2000(1109	-14453
▁200000(40	-14454
▁marketing	-14455
▁sainsbury	-14456
▁steampunk	-14457
?----------	-14458
▁200000(232	-14459
▁200000(381	-14460
▁chuunibyou	-14461
.-----------	-14462
.------------	-14463
'!	-14464
-6	-14465
.2	-14466
0.	-14467
3%	-14468
5"	-14469
:0	-14470
cũ	-14471
eu	-14472
gt	-14473
kc	-14474
lq	-14475
nợ	-14476
sr	-14477
tý	-14478
tờ	-14479
vo	-14480
xt	-14481
xế	-14482
»?	-14483
ãu	-14484
ỗn	-14485
(14	-14486
.!"	-14487
."(	-14488
."[	-14489
.1:	-14490
.3:	-14491
.4:	-14492
020	-14493
031	-14494
070	-14495
111	-14496
121	-14497
123	-14498
132	-14499
-0"	-14500
14,	-14501
143	-14502
156	-14503
172	-14504
210	-14505
22,	-14506
255	-14507
256	-14508
287	-14509
3."	-14510
30"	-14511
350	-14512
354	-14513
360	-14514
376	-14515
380	-14516
392	-14517
393	-14518
4%,	-14519
424	-14520
441	-14521
460	-14522
472	-14523
475	-14524
501	-14525
60%	-14526
607	-14527
620	-14528
671	-14529
683	-14530
697	-14531
741	-14532
75%	-14533
8%.	-14534
904	-14535
963	-14536
985	-14537
?",	-14538
??"	-14539
aru	-14540
aug	-14541
bla	-14542
bro	-14543
bus	-14544
bân	-14545
bãn	-14546
bén	-14547
bêu	-14548
bôi	-14549
bưu	-14550
bầy	-14551
bịa	-14552
bồn	-14553
bữa	-14554
ccu	-14555
chả	-14556
clo	-14557
cài	-14558
cãi	-14559
cắn	-14560
cối	-14561
cột	-14562
die	-14563
dán	-14564
dưa	-14565
dập	-14566
dẹp	-14567
dối	-14568
dời	-14569
ean	-14570
gai	-14571
gna	-14572
góc	-14573
gọn	-14574
gửi	-14575
huỷ	-14576
hái	-14577
hãm	-14578
hặt	-14579
hốc	-14580
iro	-14581
kis	-14582
kla	-14583
kêt	-14584
loi	-14585
làn	-14586
mat	-14587
mmm	-14588
mèo	-14589
mạn	-14590
mậu	-14591
mọc	-14592
ngo	-14593
ngạ	-14594
nhe	-14595
nhổ	-14596
nấu	-14597
nộp	-14598
nữu	-14599
olv	-14600
ope	-14601
ort	-14602
oán	-14603
ppa	-14604
pro	-14605
rek	-14606
rin	-14607
rit	-14608
rnm	-14609
roi	-14610
sta	-14611
sụp	-14612
tip	-14613
tuệ	-14614
táo	-14615
ura	-14616
use	-14617
vel	-14618
vảy	-14619
vẹt	-14620
xám	-14621
xèo	-14622
xốt	-14623
đèn	-14624
đúc	-14625
đầm	-14626
đốc	-14627
độn	-14628
▁!?	-14629
▁"“	-14630
▁(=	-14631
▁.-	-14632
▁0?	-14633
▁1"	-14634
▁2"	-14635
▁[?	-14636
▁bĩ	-14637
▁cc	-14638
▁dé	-14639
▁mc	-14640
▁nm	-14641
▁nt	-14642
▁op	-14643
▁sr	-14644
▁sả	-14645
▁tn	-14646
▁tĩ	-14647
▁·,	-14648
▁ài	-14649
▁đí	-14650
▁đõ	-14651
▁ận	-14652
▁ắc	-14653
▁ỉa	-14654
▁ới	-14655
▁ủa	-14656
(150	-14657
.100	-14658
100"	-14659
18%,	-14660
500"	-14661
80%.	-14662
?"".	-14663
???"	-14664
anya	-14665
arsa	-14666
bann	-14667
bụng	-14668
bừng	-14669
chay	-14670
chén	-14671
chắp	-14672
chứa	-14673
chửi	-14674
cole	-14675
cong	-14676
cuno	-14677
dieu	-14678
diêt	-14679
dĩnh	-14680
eddy	-14681
elar	-14682
etus	-14683
evli	-14684
ghts	-14685
gioi	-14686
giày	-14687
giật	-14688
giặc	-14689
gừng	-14690
hand	-14691
hang	-14692
hell	-14693
hoth	-14694
hoài	-14695
hủng	-14696
kans	-14697
khae	-14698
kidd	-14699
kiêm	-14700
klah	-14701
lich	-14702
lood	-14703
lora	-14704
lệch	-14705
marl	-14706
ngải	-14707
ngắm	-14708
ngửa	-14709
ngửi	-14710
nhâm	-14711
nùng	-14712
orld	-14713
phia	-14714
phil	-14715
phép	-14716
quid	-14717
quật	-14718
rand	-14719
rudy	-14720
rảnh	-14721
span	-14722
sạch	-14723
taly	-14724
thoi	-14725
thép	-14726
thấm	-14727
thấu	-14728
thầy	-14729
tich	-14730
tiêp	-14731
trật	-14732
trọc	-14733
trợn	-14734
trụy	-14735
tùng	-14736
ural	-14737
vuốt	-14738
vạch	-14739
vững	-14740
xoại	-14741
xách	-14742
đoản	-14743
▁"14	-14744
▁"2,	-14745
▁"23	-14746
▁"24	-14747
▁"28	-14748
▁"35	-14749
▁"38	-14750
▁"5,	-14751
▁"6,	-14752
▁"8"	-14753
▁'."	-14754
▁(',	-14755
▁().	-14756
▁(25	-14757
▁(26	-14758
▁(3,	-14759
▁(4)	-14760
▁(51	-14761
▁(64	-14762
▁(96	-14763
▁)%.	-14764
▁)(1	-14765
▁-!"	-14766
▁---	-14767
▁0(0	-14768
▁1-4	-14769
▁14%	-14770
▁16!	-14771
▁16%	-14772
▁17%	-14773
▁2,9	-14774
▁2-1	-14775
▁261	-14776
▁269	-14777
▁281	-14778
▁29,	-14779
▁3,2	-14780
▁3.0	-14781
▁30!	-14782
▁306	-14783
▁329	-14784
▁33,	-14785
▁358	-14786
▁359	-14787
▁381	-14788
▁382	-14789
▁388	-14790
▁4!"	-14791
▁4,3	-14792
▁4,8	-14793
▁402	-14794
▁417	-14795
▁431	-14796
▁447	-14797
▁459	-14798
▁47.	-14799
▁471	-14800
▁474	-14801
▁48%	-14802
▁483	-14803
▁485	-14804
▁498	-14805
▁50!	-14806
▁50(	-14807
▁504	-14808
▁529	-14809
▁534	-14810
▁535	-14811
▁545	-14812
▁546	-14813
▁55%	-14814
▁551	-14815
▁553	-14816
▁557	-14817
▁564	-14818
▁574	-14819
▁58,	-14820
▁586	-14821
▁591	-14822
▁6,8	-14823
▁60!	-14824
▁603	-14825
▁615	-14826
▁617	-14827
▁634	-14828
▁644	-14829
▁652	-14830
▁654	-14831
▁656	-14832
▁657	-14833
▁676	-14834
▁682	-14835
▁684	-14836
▁688	-14837
▁695	-14838
▁698	-14839
▁7,9	-14840
▁70!	-14841
▁703	-14842
▁705	-14843
▁708	-14844
▁71,	-14845
▁72%	-14846
▁73.	-14847
▁735	-14848
▁738	-14849
▁74.	-14850
▁742	-14851
▁766	-14852
▁77,	-14853
▁798	-14854
▁8,7	-14855
▁806	-14856
▁807	-14857
▁80]	-14858
▁81.	-14859
▁811	-14860
▁82.	-14861
▁823	-14862
▁827	-14863
▁83%	-14864
▁837	-14865
▁847	-14866
▁848	-14867
▁852	-14868
▁857	-14869
▁874	-14870
▁882	-14871
▁883	-14872
▁891	-14873
▁899	-14874
▁907	-14875
▁909	-14876
▁915	-14877
▁917	-14878
▁945	-14879
▁956	-14880
▁962	-14881
▁97,	-14882
▁973	-14883
▁991	-14884
▁998	-14885
▁=))	-14886
▁]!"	-14887
▁abc	-14888
▁bin	-14889
▁boa	-14890
▁bơm	-14891
▁bập	-14892
▁bỗi	-14893
▁bủa	-14894
▁cãu	-14895
▁dái	-14896
▁dơn	-14897
▁dạm	-14898
▁goá	-14899
▁gôm	-14900
▁gắm	-14901
▁hiệ	-14902
▁hàu	-14903
▁hóp	-14904
▁hẽm	-14905
▁hụp	-14906
▁icu	-14907
▁iền	-14908
▁khà	-14909
▁kni	-14910
▁loà	-14911
▁loã	-14912
▁lâp	-14913
▁lùa	-14914
▁lúp	-14915
▁lăp	-14916
▁lậy	-14917
▁lọm	-14918
▁lổm	-14919
▁mên	-14920
▁mìn	-14921
▁mẩy	-14922
▁nhố	-14923
▁oli	-14924
▁oẳn	-14925
▁pol	-14926
▁pop	-14927
▁pua	-14928
▁quệ	-14929
▁riu	-14930
▁rui	-14931
▁rằm	-14932
▁rột	-14933
▁ssr	-14934
▁sác	-14935
▁thồ	-14936
▁tực	-14937
▁usb	-14938
▁vot	-14939
▁xac	-14940
▁xan	-14941
▁xép	-14942
▁··.	-14943
▁đãu	-14944
▁đưt	-14945
▁đấp	-14946
▁“50	-14947
0000,	-14948
1000!	-14949
4000,	-14950
50000	-14951
?----	-14952
angus	-14953
aruto	-14954
arvis	-14955
baidu	-14956
burns	-14957
chiều	-14958
daina	-14959
dormu	-14960
giếng	-14961
khiếu	-14962
kisch	-14963
krisa	-14964
nghìn	-14965
ngươc	-14966
ngạnh	-14967
nhiêu	-14968
nhánh	-14969
nhúng	-14970
olves	-14971
phược	-14972
phịch	-14973
quãng	-14974
rhona	-14975
stall	-14976
trăng	-14977
trượt	-14978
trồng	-14979
trứng	-14980
▁!...	-14981
▁"30,	-14982
▁"50,	-14983
▁"700	-14984
▁(17,	-14985
▁(278	-14986
▁(326	-14987
▁1.5%	-14988
▁10!"	-14989
▁10):	-14990
▁1002	-14991
▁1013	-14992
▁1033	-14993
▁1034	-14994
▁1036	-14995
▁1039	-14996
▁105.	-14997
▁1055	-14998
▁1059	-14999
▁106.	-15000
▁1068	-15001
▁1073	-15002
▁1074	-15003
▁1081	-15004
▁1086	-15005
▁1091	-15006
▁1092	-15007
▁110%	-15008
▁1106	-15009
▁1129	-15010
▁1149	-15011
▁1157	-15012
▁1160	-15013
▁1177	-15014
▁1196	-15015
▁128(	-15016
▁13."	-15017
▁130.	-15018
▁1312	-15019
▁1325	-15020
▁1339	-15021
▁1342	-15022
▁1348	-15023
▁1354	-15024
▁1368	-15025
▁1373	-15026
▁1390	-15027
▁1392	-15028
▁1393	-15029
▁1399	-15030
▁1408	-15031
▁1410	-15032
▁143,	-15033
▁1451	-15034
▁1477	-15035
▁1478	-15036
▁1502	-15037
▁1506	-15038
▁1512	-15039
▁1522	-15040
▁1523	-15041
▁1525	-15042
▁1526	-15043
▁1529	-15044
▁1545	-15045
▁1563	-15046
▁1568	-15047
▁1578	-15048
▁158.	-15049
▁1584	-15050
▁1608	-15051
▁1646	-15052
▁1688	-15053
▁1689	-15054
▁1760	-15055
▁1770	-15056
▁1789	-15057
▁18."	-15058
▁180%	-15059
▁1808	-15060
▁1852	-15061
▁1865	-15062
▁1872	-15063
▁1898	-15064
▁1970	-15065
▁2%)]	-15066
▁20):	-15067
▁203,	-15068
▁21."	-15069
▁2147	-15070
▁23%.	-15071
▁2323	-15072
▁2398	-15073
▁253,	-15074
▁2938	-15075
▁3%)]	-15076
▁30%(	-15077
▁3050	-15078
▁3158	-15079
▁32."	-15080
▁3231	-15081
▁360,	-15082
▁3620	-15083
▁3700	-15084
▁3942	-15085
▁40%(	-15086
▁40%)	-15087
▁400!	-15088
▁4100	-15089
▁4231	-15090
▁4300	-15091
▁440.	-15092
▁5%."	-15093
▁510.	-15094
▁5123	-15095
▁540-	-15096
▁55%.	-15097
▁5632	-15098
▁6200	-15099
▁65%.	-15100
▁7123	-15101
▁7300	-15102
▁80(7	-15103
▁808.	-15104
▁8132	-15105
▁8200	-15106
▁8321	-15107
▁850.	-15108
▁8596	-15109
▁880,	-15110
▁90%!	-15111
▁900.	-15112
▁9051	-15113
▁9324	-15114
▁946:	-15115
▁960.	-15116
▁[3].	-15117
▁adra	-15118
▁alva	-15119
▁arti	-15120
▁biễu	-15121
▁bọng	-15122
▁choè	-15123
▁chup	-15124
▁cụng	-15125
▁eins	-15126
▁giau	-15127
▁giấm	-15128
▁guna	-15129
▁gươi	-15130
▁hoắt	-15131
▁hảng	-15132
▁ivan	-15133
▁kheo	-15134
▁kháy	-15135
▁khạc	-15136
▁khẫn	-15137
▁khứa	-15138
▁lake	-15139
▁luât	-15140
▁luộc	-15141
▁mala	-15142
▁mein	-15143
▁menu	-15144
▁muna	-15145
▁murs	-15146
▁nasr	-15147
▁nguc	-15148
▁ngăt	-15149
▁ngưc	-15150
▁ngươ	-15151
▁ngủm	-15152
▁nhám	-15153
▁nhâc	-15154
▁nhọt	-15155
▁nhột	-15156
▁núng	-15157
▁oaks	-15158
▁pika	-15159
▁rano	-15160
▁rướn	-15161
▁rặng	-15162
▁sabr	-15163
▁sett	-15164
▁sith	-15165
▁tere	-15166
▁thun	-15167
▁thẩy	-15168
▁thắc	-15169
▁thốc	-15170
▁tiêc	-15171
▁todd	-15172
▁trãm	-15173
▁trấm	-15174
▁trẩu	-15175
▁trắm	-15176
▁trệu	-15177
▁turn	-15178
▁vocp	-15179
▁xình	-15180
▁»?""	-15181
▁đóầm	-15182
▁“200	-15183
▁“300	-15184
!(4000	-15185
....."	-15186
1000%!	-15187
12000,	-15188
aaaaaa	-15189
bashar	-15190
ccubus	-15191
choáng	-15192
chướng	-15193
geralt	-15194
giường	-15195
kanshu	-15196
khoanh	-15197
khoảnh	-15198
khuếch	-15199
lilith	-15200
marsha	-15201
millie	-15202
nghiên	-15203
nghiệp	-15204
nhoáng	-15205
ormers	-15206
rupert	-15207
series	-15208
thuyết	-15209
vulcan	-15210
xstras	-15211
▁"100%	-15212
▁"???"	-15213
▁(512,	-15214
▁----!	-15215
▁0(162	-15216
▁0(174	-15217
▁0(178	-15218
▁0(190	-15219
▁0(254	-15220
▁0(390	-15221
▁0(434	-15222
▁0(438	-15223
▁0(546	-15224
▁0(550	-15225
▁1,001	-15226
▁1,002	-15227
▁1,256	-15228
▁1,425	-15229
▁1,540	-15230
▁1,750	-15231
▁1,864	-15232
▁10100	-15233
▁10385	-15234
▁1050(	-15235
▁1050,	-15236
▁1469:	-15237
▁1472:	-15238
▁15%),	-15239
▁1500.	-15240
▁1553:	-15241
▁1566:	-15242
▁1582:	-15243
▁1583:	-15244
▁1586:	-15245
▁1592:	-15246
▁1598:	-15247
▁1602:	-15248
▁1603:	-15249
▁1606:	-15250
▁1608:	-15251
▁1611:	-15252
▁1612:	-15253
▁1614:	-15254
▁1617:	-15255
▁1620:	-15256
▁1623:	-15257
▁1631:	-15258
▁1641:	-15259
▁1642:	-15260
▁1643:	-15261
▁1644:	-15262
▁1652:	-15263
▁1655:	-15264
▁1657:	-15265
▁1658:	-15266
▁1660:	-15267
▁1662:	-15268
▁1663:	-15269
▁1665:	-15270
▁1666:	-15271
▁1668:	-15272
▁1669:	-15273
▁1671:	-15274
▁1672:	-15275
▁1673:	-15276
▁1674,	-15277
▁1675:	-15278
▁1677:	-15279
▁1679:	-15280
▁16800	-15281
▁1680:	-15282
▁1681:	-15283
▁1682:	-15284
▁1684:	-15285
▁1686:	-15286
▁1687:	-15287
▁1688:	-15288
▁1689:	-15289
▁1690:	-15290
▁1691:	-15291
▁1693:	-15292
▁1694:	-15293
▁1695:	-15294
▁1697:	-15295
▁1698:	-15296
▁1699:	-15297
▁1700,	-15298
▁1700:	-15299
▁1702:	-15300
▁1704:	-15301
▁1705:	-15302
▁1706:	-15303
▁1708:	-15304
▁1709:	-15305
▁1711:	-15306
▁1712:	-15307
▁1714:	-15308
▁1717:	-15309
▁1718:	-15310
▁1719:	-15311
▁1720:	-15312
▁1721:	-15313
▁1722:	-15314
▁1723:	-15315
▁1724:	-15316
▁1725:	-15317
▁1726:	-15318
▁1729:	-15319
▁1730:	-15320
▁1731:	-15321
▁1733:	-15322
▁1734:	-15323
▁1735:	-15324
▁1737:	-15325
▁1738:	-15326
▁1739:	-15327
▁1740:	-15328
▁1743:	-15329
▁1744:	-15330
▁1745:	-15331
▁1748:	-15332
▁1751:	-15333
▁1752:	-15334
▁1755:	-15335
▁1756:	-15336
▁1758:	-15337
▁1759:	-15338
▁1761:	-15339
▁1763:	-15340
▁1764:	-15341
▁1765:	-15342
▁1767:	-15343
▁1770:	-15344
▁1771:	-15345
▁1772:	-15346
▁1776:	-15347
▁1777:	-15348
▁1778:	-15349
▁1779:	-15350
▁1780:	-15351
▁1781:	-15352
▁1784:	-15353
▁1785:	-15354
▁1786:	-15355
▁1788:	-15356
▁1790:	-15357
▁1791:	-15358
▁1792:	-15359
▁1793:	-15360
▁1795:	-15361
▁1796:	-15362
▁1797:	-15363
▁1798:	-15364
▁1800.	-15365
▁1800:	-15366
▁1802:	-15367
▁1803:	-15368
▁1804:	-15369
▁1805:	-15370
▁1806:	-15371
▁1807:	-15372
▁1808:	-15373
▁1810:	-15374
▁1811:	-15375
▁1812:	-15376
▁1813:	-15377
▁1814:	-15378
▁1816:	-15379
▁1817:	-15380
▁1819:	-15381
▁1821:	-15382
▁1822:	-15383
▁1823:	-15384
▁1825:	-15385
▁1826:	-15386
▁1827:	-15387
▁1829:	-15388
▁1830:	-15389
▁1831:	-15390
▁1832:	-15391
▁1833:	-15392
▁1834:	-15393
▁1835:	-15394
▁1836:	-15395
▁1837:	-15396
▁1838:	-15397
▁1839:	-15398
▁1841:	-15399
▁1843:	-15400
▁1846:	-15401
▁1847:	-15402
▁1848:	-15403
▁1849:	-15404
▁1854:	-15405
▁1855:	-15406
▁1856:	-15407
▁1857:	-15408
▁1859:	-15409
▁1860:	-15410
▁1861:	-15411
▁1862:	-15412
▁1863:	-15413
▁1864:	-15414
▁1865:	-15415
▁1866:	-15416
▁1867:	-15417
▁1868:	-15418
▁1869:	-15419
▁1870:	-15420
▁1871:	-15421
▁1874:	-15422
▁1875:	-15423
▁1877:	-15424
▁1878:	-15425
▁1879:	-15426
▁1880:	-15427
▁1882:	-15428
▁1883:	-15429
▁1884:	-15430
▁1885:	-15431
▁1888:	-15432
▁1889:	-15433
▁1890:	-15434
▁1891:	-15435
▁1892:	-15436
▁1895:	-15437
▁1896:	-15438
▁1897:	-15439
▁1898:	-15440
▁1900:	-15441
▁1902:	-15442
▁2,120	-15443
▁2,600	-15444
▁2029:	-15445
▁2090:	-15446
▁2265:	-15447
▁2400,	-15448
▁2438:	-15449
▁2460:	-15450
▁2491:	-15451
▁25%),	-15452
▁2573:	-15453
▁2574:	-15454
▁270%.	-15455
▁280%,	-15456
▁3,380	-15457
▁3,400	-15458
▁3,720	-15459
▁3,750	-15460
▁3340:	-15461
▁3341:	-15462
▁3342:	-15463
▁3343:	-15464
▁3430:	-15465
▁350%.	-15466
▁3785:	-15467
▁3786:	-15468
▁3787:	-15469
▁3788:	-15470
▁3792:	-15471
▁3796:	-15472
▁3797:	-15473
▁3799:	-15474
▁3800:	-15475
▁3801:	-15476
▁3802:	-15477
▁3803:	-15478
▁4,200	-15479
▁4,500	-15480
▁4030:	-15481
▁500%!	-15482
▁500."	-15483
▁5050.	-15484
▁6000.	-15485
▁650%,	-15486
▁7,625	-15487
▁8,142	-15488
▁8,200	-15489
▁8,600	-15490
▁8000.	-15491
▁80000	-15492
▁9,200	-15493
▁9,600	-15494
▁9,960	-15495
▁bacon	-15496
▁burns	-15497
▁cabin	-15498
▁cecil	-15499
▁chiếp	-15500
▁choét	-15501
▁cháng	-15502
▁crhết	-15503
▁doyle	-15504
▁duang	-15505
▁heros	-15506
▁hriếp	-15507
▁hơnbà	-15508
▁italy	-15509
▁khuân	-15510
▁khàng	-15511
▁khắng	-15512
▁loron	-15513
▁motip	-15514
▁motor	-15515
▁nappa	-15516
▁nghẹo	-15517
▁nguýt	-15518
▁nhuọc	-15519
▁nhặng	-15520
▁organ	-15521
▁panda	-15522
▁phông	-15523
▁phướn	-15524
▁phừng	-15525
▁quạch	-15526
▁squid	-15527
▁teddy	-15528
▁thiếm	-15529
▁thãng	-15530
▁thững	-15531
▁trans	-15532
▁tróng	-15533
▁valar	-15534
▁xoàng	-15535
▁đỏmột	-15536
300000,	-15537
800000,	-15538
banners	-15539
bennett	-15540
collier	-15541
dracula	-15542
nghiêng	-15543
tempsta	-15544
▁"10000	-15545
▁)(4000	-15546
▁0(1452	-15547
▁000105	-15548
▁120000	-15549
▁150000	-15550
▁160(12	-15551
▁160(16	-15552
▁16000,	-15553
▁17,000	-15554
▁1800%,	-15555
▁2,000%	-15556
▁23,800	-15557
▁30,641	-15558
▁30300.	-15559
▁36,000	-15560
▁38,000	-15561
▁43,499	-15562
▁6000%,	-15563
▁60600.	-15564
▁640(45	-15565
▁640(54	-15566
▁abhoth	-15567
▁bishop	-15568
▁cacbon	-15569
▁chuếnh	-15570
▁dances	-15571
▁diklah	-15572
▁dilora	-15573
▁health	-15574
▁naruto	-15575
▁oliver	-15576
▁sammer	-15577
▁tamara	-15578
▁trebol	-15579
......."	-15580
1000000,	-15581
internet	-15582
▁200(399	-15583
▁200(463	-15584
▁200(542	-15585
▁200(574	-15586
▁200(814	-15587
▁2000(20	-15588
▁200000,	-15589
▁2000000	-15590
▁40.000,	-15591
▁60%-80%	-15592
▁alstein	-15593
▁caramen	-15594
▁carslan	-15595
▁install	-15596
▁knights	-15597
▁lapetus	-15598
▁nàyoanh	-15599
▁nàyđông	-15600
▁olympic	-15601
▁phutinh	-15602
▁raleigh	-15603
▁version	-15604
▁.”......	-15605
▁2000(119	-15606
▁2000(824	-15607
▁200000(8	-15608
▁300,000.	-15609
▁6000(683	-15610
▁6000(736	-15611
▁articuno	-15612
▁einstein	-15613
▁nubashar	-15614
▁quốcnhất	-15615
▁succubus	-15616
▁trollope	-15617
▁yamamoto	-15618
▁2000(1282	-15619
▁2000(1284	-15620
▁2000(1656	-15621
▁adrenalin	-15622
▁alexstras	-15623
▁0.00001%),	-15624
▁200000(250	-15625
▁200000(365	-15626
▁200000(397	-15627
▁200000(548	-15628
▁200000(972	-15629
▁200000(973	-15630
▁andalescon	-15631
▁generation	-15632
▁metruyencv	-15633
▁microphone	-15634
▁sabretooth	-15635
...............	-15636
"?	-15637
'?	-15638
()	-15639
(7	-15640
.5	-15641
3(	-15642
5]	-15643
:.	-15644
:]	-15645
?]	-15646
ab	-15647
ax	-15648
bì	-15649
bể	-15650
cs	-15651
dg	-15652
dữ	-15653
ec	-15654
gã	-15655
gỡ	-15656
hh	-15657
hứ	-15658
iv	-15659
kẽ	-15660
kị	-15661
lạ	-15662
mỉ	-15663
nk	-15664
nê	-15665
oc	-15666
qt	-15667
rê	-15668
tk	-15669
tv	-15670
vd	-15671
vơ	-15672
vư	-15673
vớ	-15674
vợ	-15675
ạu	-15676
ẻo	-15677
ểt	-15678
ổm	-15679
ỗm	-15680
▁â	-15681
▁ả	-15682
!.,	-15683
%."	-15684
(50	-15685
)?”	-15686
-30	-15687
."?	-15688
..(	-15689
.50	-15690
00"	-15691
1%.	-15692
112	-15693
13,	-15694
139	-15695
148	-15696
182	-15697
2."	-15698
20)	-15699
-.	-15700
101	-15701
260	-15702
28,	-15703
3%,	-15704
3%.	-15705
312	-15706
325	-15707
333	-15708
401	-15709
450	-15710
47.	-15711
5)]	-15712
50!	-15713
560	-15714
584	-15715
7%,	-15716
7%.	-15717
704	-15718
782	-15719
886	-15720
892	-15721
:06	-15722
alm	-15723
aly	-15724
ams	-15725
aoh	-15726
bóc	-15727
búa	-15728
bẫy	-15729
cca	-15730
chơ	-15731
cán	-15732
cưa	-15733
cạm	-15734
cấn	-15735
din	-15736
dio	-15737
dận	-15738
ehe	-15739
eli	-15740
eme	-15741
emi	-15742
ent	-15743
err	-15744
giở	-15745
gus	-15746
gân	-15747
gạo	-15748
gắt	-15749
hie	-15750
hoá	-15751
hoạ	-15752
hẹp	-15753
ito	-15754
ivi	-15755
kai	-15756
kes	-15757
khờ	-15758
kén	-15759
lie	-15760
lyn	-15761
lạt	-15762
lải	-15763
lắc	-15764
lỗi	-15765
múa	-15766
mẫn	-15767
nhứ	-15768
npc	-15769
nôn	-15770
núp	-15771
nấm	-15772
nối	-15773
oạt	-15774
quê	-15775
rót	-15776
rùa	-15777
rắc	-15778
sét	-15779
sấm	-15780
trú	-15781
trư	-15782
tta	-15783
tàm	-15784
tát	-15785
tóe	-15786
tằm	-15787
vie	-15788
vôi	-15789
vụt	-15790
xít	-15791
yeu	-15792
yết	-15793
»?”	-15794
đấm	-15795
đần	-15796
đền	-15797
”!”	-15798
▁"»	-15799
056	-15800
122	-15801
140	-15802
872	-15803
run	-15804
ste	-15805
vip	-15806
▁%!	-15807
▁-(	-15808
▁1]	-15809
▁6]	-15810
▁7?	-15811
▁8-	-15812
▁bõ	-15813
▁cừ	-15814
▁dể	-15815
▁dồ	-15816
▁gg	-15817
▁gk	-15818
▁lậ	-15819
▁np	-15820
▁nì	-15821
▁ní	-15822
▁rn	-15823
▁ry	-15824
▁tồ	-15825
▁vổ	-15826
▁xx	-15827
▁«,	-15828
▁«.	-15829
▁ãm	-15830
▁òm	-15831
▁đc	-15832
▁ầy	-15833
▁ếp	-15834
)(25	-15835
)...	-15836
-300	-15837
.""?	-15838
...)	-15839
000"	-15840
001%	-15841
200.	-15842
alva	-15843
amil	-15844
ando	-15845
aomi	-15846
bbin	-15847
biệt	-15848
bran	-15849
buội	-15850
bính	-15851
chem	-15852
cháo	-15853
chèo	-15854
chêt	-15855
chấm	-15856
chần	-15857
chật	-15858
chốn	-15859
cill	-15860
cola	-15861
cond	-15862
core	-15863
cuốn	-15864
dica	-15865
dinh	-15866
dành	-15867
dông	-15868
ermu	-15869
gián	-15870
giãy	-15871
giậm	-15872
giận	-15873
guna	-15874
heng	-15875
huân	-15876
hươu	-15877
illa	-15878
inal	-15879
ivir	-15880
kate	-15881
kerr	-15882
khám	-15883
khán	-15884
khéo	-15885
khói	-15886
khôn	-15887
khửu	-15888
kiềm	-15889
liêm	-15890
lkan	-15891
loài	-15892
lách	-15893
lượn	-15894
mánh	-15895
ngão	-15896
ngạc	-15897
ngấp	-15898
ngắt	-15899
115	-15900
15(	-15901
241	-15902
251	-15903
252	-15904
5).	-15905
81%	-15906
873	-15907
897	-15908
999	-15909
toc	-15910
xua	-15911
▁úm	-15912
100!	-15913
:100	-15914
gore	-15915
hehe	-15916
nhao	-15917
nhin	-15918
nhào	-15919
nhóc	-15920
nhốt	-15921
ones	-15922
phán	-15923
phất	-15924
pper	-15925
quge	-15926
rãnh	-15927
ssia	-15928
sung	-15929
suốt	-15930
sàng	-15931
sùng	-15932
tala	-15933
thât	-15934
thẹn	-15935
thục	-15936
tiệt	-15937
toan	-15938
tris	-15939
trào	-15940
trèo	-15941
tròn	-15942
trôn	-15943
trưa	-15944
tâng	-15945
tòng	-15946
túng	-15947
vườn	-15948
vầng	-15949
xoạu	-15950
đống	-15951
ượọc	-15952
”...	-15953
▁"."	-15954
▁".'	-15955
▁"90	-15956
▁(28	-15957
▁(34	-15958
▁(41	-15959
▁(42	-15960
▁(60	-15961
▁)!"	-15962
▁)(3	-15963
▁-).	-15964
▁..,	-15965
▁..”	-15966
▁1(0	-15967
▁1-6	-15968
▁11%	-15969
▁15(	-15970
▁19%	-15971
▁259	-15972
▁271	-15973
▁3!"	-15974
▁3%!	-15975
▁3,7	-15976
▁3,8	-15977
▁3,9	-15978
▁32%	-15979
▁32(	-15980
▁331	-15981
▁334	-15982
▁339	-15983
▁379	-15984
▁394	-15985
▁4,4	-15986
▁4,5	-15987
▁4,6	-15988
▁40-	-15989
▁41%	-15990
▁418	-15991
▁419	-15992
▁42.	-15993
▁43,	-15994
▁441	-15995
▁449	-15996
▁462	-15997
▁464	-15998
▁47,	-15999
178	-16000
239	-16001
72.	-16002
aoke	-16003
duke	-16004
luke	-16005
otto	-16006
▁(39	-16007
▁)(0	-16008
▁)(5	-16009
▁475	-16010
▁481	-16011
▁482	-16012
▁487	-16013
▁5,8	-16014
▁511	-16015
▁518	-16016
▁538	-16017
▁539	-16018
▁549	-16019
▁556	-16020
▁575	-16021
▁584	-16022
▁592	-16023
▁599	-16024
▁6-7	-16025
▁614	-16026
▁62.	-16027
▁628	-16028
▁629	-16029
▁63%	-16030
▁637	-16031
▁639	-16032
▁658	-16033
▁673	-16034
▁706	-16035
▁711	-16036
▁715	-16037
▁728	-16038
▁72]	-16039
▁733	-16040
▁748	-16041
▁761	-16042
▁771	-16043
▁774	-16044
▁77]	-16045
▁785	-16046
▁788	-16047
▁793	-16048
▁796	-16049
▁8,4	-16050
▁80-	-16051
▁805	-16052
▁819	-16053
▁81]	-16054
▁824	-16055
▁83,	-16056
▁844	-16057
▁845	-16058
▁869	-16059
▁87%	-16060
▁875	-16061
▁878	-16062
▁887	-16063
▁889	-16064
▁88]	-16065
▁895	-16066
▁898	-16067
▁9%,	-16068
▁9%.	-16069
▁9,7	-16070
▁901	-16071
▁903	-16072
▁904	-16073
▁90?	-16074
▁927	-16075
▁936	-16076
▁937	-16077
▁939	-16078
▁944	-16079
▁951	-16080
▁955	-16081
▁964	-16082
▁965	-16083
▁978	-16084
▁98,	-16085
▁981	-16086
▁982	-16087
▁988	-16088
▁[10	-16089
▁ace	-16090
▁bui	-16091
▁bâm	-16092
▁bãy	-16093
▁băp	-16094
▁cat	-16095
▁cáy	-16096
▁côc	-16097
▁cũi	-16098
▁cừa	-16099
(23	-16100
21,	-16101
556	-16102
666	-16103
tôm	-16104
25%(	-16105
boss	-16106
muôi	-16107
▁2%!	-16108
▁61,	-16109
▁611	-16110
▁7%!	-16111
▁867	-16112
▁868	-16113
▁942	-16114
▁cửi	-16115
▁don	-16116
▁dũi	-16117
▁dảm	-16118
▁dợi	-16119
▁gel	-16120
▁gib	-16121
▁giũ	-16122
▁gáo	-16123
▁gâm	-16124
▁gìa	-16125
▁gẫy	-16126
▁gộc	-16127
▁hal	-16128
▁hid	-16129
▁huc	-16130
▁hât	-16131
▁hùn	-16132
▁hớt	-16133
▁iệt	-16134
▁kit	-16135
▁kog	-16136
▁kèo	-16137
▁lag	-16138
▁led	-16139
▁lum	-16140
▁lèo	-16141
▁lắt	-16142
▁miy	-16143
▁mnh	-16144
▁mun	-16145
▁mvp	-16146
▁mêm	-16147
▁mõm	-16148
▁nhễ	-16149
▁ntr	-16150
▁nột	-16151
▁phm	-16152
▁pic	-16153
▁pvp	-16154
▁qùy	-16155
▁rac	-16156
▁rag	-16157
▁rie	-16158
▁rin	-16159
▁rum	-16160
▁rơn	-16161
▁rấp	-16162
▁rớn	-16163
▁seb	-16164
▁sot	-16165
▁stu	-16166
▁sun	-16167
▁suê	-16168
▁syd	-16169
▁súy	-16170
▁sần	-16171
▁sẽn	-16172
▁thâ	-16173
▁thó	-16174
▁thầ	-16175
▁tãm	-16176
▁tíc	-16177
▁tịu	-16178
▁tời	-16179
▁tụm	-16180
▁vảo	-16181
▁xòa	-16182
▁xạt	-16183
▁xập	-16184
▁xẹo	-16185
▁xỏa	-16186
▁xốm	-16187
▁xức	-16188
▁đon	-16189
▁đệi	-16190
▁“99	-16191
-6-0"	-16192
...""	-16193
1500,	-16194
30000	-16195
7,000	-16196
75%),	-16197
8000,	-16198
allis	-16199
135	-16200
175	-16201
179	-16202
190	-16203
21%	-16204
211	-16205
563	-16206
692	-16207
90.	-16208
hym	-16209
9999	-16210
ctor	-16211
thoả	-16212
▁"21	-16213
1000"	-16214
11000	-16215
amate	-16216
amiri	-16217
anker	-16218
aroch	-16219
black	-16220
block	-16221
chích	-16222
ckson	-16223
close	-16224
duong	-16225
gusta	-16226
khiết	-16227
khuấy	-16228
lucas	-16229
lucia	-16230
neham	-16231
ocles	-16232
quito	-16233
quyên	-16234
richa	-16235
satan	-16236
siêng	-16237
tamin	-16238
thuấn	-16239
timus	-16240
ustus	-16241
velen	-16242
video	-16243
▁"110	-16244
▁(180	-16245
▁(200	-16246
▁(348	-16247
▁(360	-16248
▁(368	-16249
▁(400	-16250
▁(800	-16251
▁-10%	-16252
▁-30%	-16253
▁005%	-16254
▁1%)!	-16255
▁1,16	-16256
▁1011	-16257
▁102.	-16258
▁1025	-16259
▁1029	-16260
▁103.	-16261
▁1032	-16262
▁104.	-16263
▁1043	-16264
▁1044	-16265
▁1053	-16266
▁1054	-16267
▁1077	-16268
▁1096	-16269
▁1099	-16270
▁11!"	-16271
▁1101	-16272
▁1113	-16273
▁112.	-16274
▁1127	-16275
▁1136	-16276
▁1151	-16277
▁1159	-16278
▁1171	-16279
▁1190	-16280
▁12),	-16281
▁120-	-16282
▁1201	-16283
▁1206	-16284
▁1210	-16285
▁1213	-16286
▁1235	-16287
▁1236	-16288
▁1248	-16289
▁125,	-16290
▁1253	-16291
▁1259	-16292
▁126.	-16293
▁1273	-16294
▁1281	-16295
▁1289	-16296
▁1291	-16297
▁130,	-16298
▁1317	-16299
032	-16300
24,	-16301
543	-16302
▁(0.	-16303
▁(5)	-16304
▁3-4	-16305
▁tml	-16306
▁(512	-16307
▁1323	-16308
▁134,	-16309
▁1341	-16310
▁1344	-16311
▁1345	-16312
▁135,	-16313
▁1352	-16314
▁1356	-16315
▁1372	-16316
▁1383	-16317
▁1384	-16318
▁140,	-16319
▁1413	-16320
▁142,	-16321
▁1421	-16322
▁1425	-16323
▁143.	-16324
▁1432	-16325
▁1452	-16326
▁1454	-16327
▁1456	-16328
▁1467	-16329
▁1470	-16330
▁1480	-16331
▁15."	-16332
▁152.	-16333
▁1521	-16334
▁1528	-16335
▁1532	-16336
▁154.	-16337
▁1541	-16338
▁1542	-16339
▁1543	-16340
▁1547	-16341
▁155.	-16342
▁156.	-16343
▁1564	-16344
▁1565	-16345
▁1574	-16346
▁1585	-16347
▁1589	-16348
▁160!	-16349
▁161.	-16350
▁1623	-16351
▁1627	-16352
▁1636	-16353
▁164.	-16354
▁1640	-16355
▁1649	-16356
▁1651	-16357
▁1656	-16358
▁167.	-16359
▁1670	-16360
▁1673	-16361
▁168.	-16362
▁1694	-16363
▁170,	-16364
▁1752	-16365
▁1762	-16366
▁1790	-16367
▁180-	-16368
▁1828	-16369
▁1871	-16370
▁1874	-16371
▁19%.	-16372
▁19."	-16373
▁1944	-16374
▁198.	-16375
▁2.8%	-16376
▁20%-	-16377
▁2022	-16378
▁203.	-16379
▁2034	-16380
▁2048	-16381
▁2050	-16382
▁207,	-16383
▁2210	-16384
▁2288	-16385
▁23."	-16386
▁2302	-16387
▁2341	-16388
▁235,	-16389
▁2356	-16390
▁2360	-16391
▁2371	-16392
▁2380	-16393
▁24."	-16394
▁245,	-16395
▁2501	-16396
▁26),	-16397
▁26."	-16398
▁2656	-16399
045	-16400
1%)]	-16401
leto	-16402
▁"37	-16403
▁"75	-16404
grand	-16405
▁149.	-16406
▁1745	-16407
▁2705	-16408
▁2750	-16409
▁2754	-16410
▁280-	-16411
▁2837	-16412
▁2845	-16413
▁2890	-16414
▁29."	-16415
▁2928	-16416
▁2937	-16417
▁3023	-16418
▁31."	-16419
▁320.	-16420
▁3211	-16421
▁3215	-16422
▁3222	-16423
▁3260	-16424
▁3423	-16425
▁3424	-16426
▁3680	-16427
▁3688	-16428
▁3761	-16429
▁3821	-16430
▁3871	-16431
▁3969	-16432
▁399.	-16433
▁4,37	-16434
▁40%!	-16435
▁4038	-16436
▁4113	-16437
▁4176	-16438
▁4305	-16439
▁4354	-16440
▁450.	-16441
▁4560	-16442
▁46%.	-16443
▁460.	-16444
▁463.	-16445
▁4693	-16446
▁4700	-16447
▁4720	-16448
▁4802	-16449
▁5%).	-16450
▁5%)]	-16451
▁50."	-16452
▁500-	-16453
▁5050	-16454
▁512,	-16455
▁5125	-16456
▁5250	-16457
▁5300	-16458
▁5415	-16459
▁5630	-16460
▁572,	-16461
▁5737	-16462
▁5813	-16463
▁5900	-16464
▁60%(	-16465
▁60%)	-16466
▁6354	-16467
▁643:	-16468
▁65."	-16469
▁6522	-16470
▁6563	-16471
▁666,	-16472
▁6780	-16473
▁70%"	-16474
▁7231	-16475
▁7263	-16476
▁7312	-16477
▁7325	-16478
▁7415	-16479
▁7760	-16480
▁78."	-16481
▁7805	-16482
▁7840	-16483
▁7960	-16484
▁80%)	-16485
▁800(	-16486
▁8004	-16487
▁8123	-16488
▁8136	-16489
▁8156	-16490
▁820,	-16491
▁8211	-16492
▁8233	-16493
▁8237	-16494
▁8256	-16495
▁8289	-16496
▁8322	-16497
▁8565	-16498
▁8609	-16499
444	-16500
89%	-16501
▁cbi	-16502
elama	-16503
▁175.	-16504
▁1844	-16505
▁1889	-16506
▁2342	-16507
▁4175	-16508
▁5342	-16509
▁8721	-16510
▁8731	-16511
▁8733	-16512
▁8734	-16513
▁8798	-16514
▁8799	-16515
▁8809	-16516
▁90%)	-16517
▁9060	-16518
▁9200	-16519
▁95%)	-16520
▁9532	-16521
▁960,	-16522
▁9630	-16523
▁9680	-16524
▁9700	-16525
▁9893	-16526
▁9902	-16527
▁999.	-16528
▁9994	-16529
▁amin	-16530
▁amon	-16531
▁anti	-16532
▁auen	-16533
▁bếch	-16534
▁cait	-16535
▁call	-16536
▁ccho	-16537
▁chum	-16538
▁chun	-16539
▁chác	-16540
▁chíu	-16541
▁chắm	-16542
▁chỏm	-16543
▁cmnr	-16544
▁cuõn	-16545
▁dark	-16546
▁debu	-16547
▁dest	-16548
▁dimi	-16549
▁dove	-16550
▁doán	-16551
▁duck	-16552
▁evie	-16553
▁gate	-16554
▁gera	-16555
▁giãi	-16556
▁hulk	-16557
▁hũng	-16558
▁hẳng	-16559
▁hỉnh	-16560
▁iona	-16561
▁khèo	-16562
▁khổn	-16563
▁kiển	-16564
▁kông	-16565
▁kẻng	-16566
▁liện	-16567
▁loét	-16568
▁marx	-16569
▁mrưu	-16570
▁mòng	-16571
▁nano	-16572
▁ngưi	-16573
▁ngấm	-16574
▁ngổm	-16575
▁ngỗi	-16576
▁nhín	-16577
▁nhăt	-16578
▁nhại	-16579
▁nhịu	-16580
▁nude	-16581
▁osci	-16582
▁phar	-16583
▁phep	-16584
▁phét	-16585
▁phễu	-16586
▁play	-16587
▁quào	-16588
▁quôc	-16589
▁raki	-16590
▁rinh	-16591
▁roth	-16592
▁sell	-16593
▁soàn	-16594
▁stra	-16595
▁sãng	-16596
▁tank	-16597
▁text	-16598
▁thiê	-16599
.28	-16600
đuôi	-16601
▁(365	-16602
▁3262	-16603
▁3278	-16604
▁8865	-16605
▁thoá	-16606
▁tivi	-16607
▁tiãn	-16608
▁trhì	-16609
▁trét	-16610
▁trấp	-16611
▁trửu	-16612
▁tuôi	-16613
▁tuất	-16614
▁tưởi	-16615
▁tồng	-16616
▁tủng	-16617
▁voan	-16618
▁vẳng	-16619
▁xoài	-16620
▁xược	-16621
▁yard	-16622
▁yoel	-16623
▁yênn	-16624
▁đòng	-16625
▁đưới	-16626
.""295	-16627
0000)]	-16628
10000!	-16629
139500	-16630
15000,	-16631
18000,	-16632
20000!	-16633
alyssa	-16634
aurane	-16635
beamon	-16636
biubiu	-16637
derson	-16638
elinor	-16639
errari	-16640
hubert	-16641
nghiệm	-16642
ongười	-16643
pedica	-16644
philip	-16645
raltar	-16646
royena	-16647
sophia	-16648
thomas	-16649
upload	-16650
xicill	-16651
yhgsyg	-16652
ângiới	-16653
▁"110.	-16654
▁"1500	-16655
▁"200.	-16656
▁(10):	-16657
▁(1000	-16658
▁(1480	-16659
▁(1500	-16660
▁(2400	-16661
▁...."	-16662
▁0(176	-16663
▁0(181	-16664
▁0(204	-16665
▁0(239	-16666
▁0(435	-16667
▁0(445	-16668
▁0(462	-16669
▁0.000	-16670
▁00:06	-16671
▁1,021	-16672
▁1,062	-16673
▁1,130	-16674
▁1,240	-16675
▁1,400	-16676
▁1,537	-16677
▁1,560	-16678
▁10%)!	-16679
▁10%."	-16680
▁1280,	-16681
▁12900	-16682
▁1300,	-16683
▁1353,	-16684
▁1563.	-16685
▁1607:	-16686
▁1634:	-16687
▁1636:	-16688
▁1645:	-16689
▁1667:	-16690
▁1670:	-16691
▁1674:	-16692
▁1678:	-16693
▁1683:	-16694
▁1685:	-16695
▁1692:	-16696
▁1696:	-16697
▁170%,	-16698
▁1703:	-16699
lũy	-16700
▁ươm	-16701
▁4451	-16702
▁1661:	-16703
▁1664:	-16704
▁1707:	-16705
▁1715:	-16706
▁1716:	-16707
▁1728:	-16708
▁1732:	-16709
▁1736:	-16710
▁1747:	-16711
▁1750:	-16712
▁1754:	-16713
▁1757:	-16714
▁1760:	-16715
▁1762:	-16716
▁1766:	-16717
▁1768:	-16718
▁1773:	-16719
▁1774:	-16720
▁1775:	-16721
▁1782:	-16722
▁1783:	-16723
▁1787:	-16724
▁1789:	-16725
▁1794:	-16726
▁1800%	-16727
▁1801:	-16728
▁1809:	-16729
▁1815:	-16730
▁1820:	-16731
▁1824:	-16732
▁1828:	-16733
▁1840:	-16734
▁1842:	-16735
▁1844:	-16736
▁1845:	-16737
▁1851:	-16738
▁1853:	-16739
▁1872:	-16740
▁1873:	-16741
▁1876:	-16742
▁1881:	-16743
▁1886:	-16744
▁1887:	-16745
▁1893:	-16746
▁1894:	-16747
▁1899:	-16748
▁1901:	-16749
▁1903:	-16750
▁1904:	-16751
▁1906:	-16752
▁1907:	-16753
▁1908:	-16754
▁1910:	-16755
▁1912:	-16756
▁1914:	-16757
▁1916:	-16758
▁1917:	-16759
▁1918:	-16760
▁1919:	-16761
▁1920:	-16762
▁1922:	-16763
▁1923:	-16764
▁1924:	-16765
▁1925:	-16766
▁1926:	-16767
▁1927:	-16768
▁1929:	-16769
▁1930:	-16770
▁1931:	-16771
▁1932:	-16772
▁1934:	-16773
▁1935:	-16774
▁1937:	-16775
▁1938:	-16776
▁1939:	-16777
▁1940:	-16778
▁1945:	-16779
▁1950:	-16780
▁1951:	-16781
▁1952:	-16782
▁1954:	-16783
▁1955:	-16784
▁1956:	-16785
▁1957:	-16786
▁1958:	-16787
▁1959:	-16788
▁1960:	-16789
▁1962:	-16790
▁1963:	-16791
▁1964:	-16792
▁1965:	-16793
▁1966:	-16794
▁1967:	-16795
▁1968:	-16796
▁1969:	-16797
▁1970:	-16798
▁1971:	-16799
.27	-16800
229	-16801
▁"27	-16802
▁(6)	-16803
▁(68	-16804
▁(840	-16805
▁1882	-16806
▁260,	-16807
▁260.	-16808
▁340.	-16809
▁3876	-16810
▁hard	-16811
▁(8000	-16812
▁0(217	-16813
▁0(444	-16814
▁0(558	-16815
▁1627:	-16816
▁1629:	-16817
▁1727:	-16818
▁1741:	-16819
▁1742:	-16820
▁1746:	-16821
▁1749:	-16822
▁1942:	-16823
▁1943:	-16824
▁1947:	-16825
▁1948:	-16826
▁1949:	-16827
▁1973:	-16828
▁1975:	-16829
▁1976:	-16830
▁1977:	-16831
▁1978:	-16832
▁1980:	-16833
▁1981:	-16834
▁1982:	-16835
▁1983:	-16836
▁1985:	-16837
▁1987:	-16838
▁1988:	-16839
▁1989:	-16840
▁1991:	-16841
▁1993:	-16842
▁1994:	-16843
▁1995:	-16844
▁1996:	-16845
▁1998:	-16846
▁1999:	-16847
▁2,005	-16848
▁2,010	-16849
▁2,434	-16850
▁2,700	-16851
▁2,744	-16852
▁2,800	-16853
▁2000"	-16854
▁2000%	-16855
▁2000:	-16856
▁2001:	-16857
▁2002:	-16858
▁2003:	-16859
▁2004:	-16860
▁2005:	-16861
▁2008:	-16862
▁2009:	-16863
▁2010:	-16864
▁2011:	-16865
▁2014:	-16866
▁2015:	-16867
▁2016:	-16868
▁2017:	-16869
▁2018:	-16870
▁2019:	-16871
▁2020:	-16872
▁2021:	-16873
▁2022:	-16874
▁2025:	-16875
▁2026:	-16876
▁2027:	-16877
▁2030:	-16878
▁2031:	-16879
▁2032:	-16880
▁2033:	-16881
▁2034:	-16882
▁2035:	-16883
▁2036:	-16884
▁2037:	-16885
▁2039:	-16886
▁2042:	-16887
▁2044:	-16888
▁2046:	-16889
▁2048:	-16890
▁2050:	-16891
▁2052:	-16892
▁2053:	-16893
▁2055:	-16894
▁2056:	-16895
▁2057:	-16896
▁2061:	-16897
▁2062:	-16898
▁2063:	-16899
83%	-16900
94%	-16901
943	-16902
979	-16903
clay	-16904
sted	-16905
▁aaa	-16906
▁bbq	-16907
▁bưc	-16908
▁omg	-16909
barro	-16910
emmmm	-16911
hoyle	-16912
kurei	-16913
ormic	-16914
▁"0?"	-16915
▁"108	-16916
▁)(18	-16917
▁-5%.	-16918
▁0.1%	-16919
▁02:.	-16920
▁169.	-16921
▁1946	-16922
▁2391	-16923
▁2397	-16924
▁3271	-16925
▁3961	-16926
▁4123	-16927
▁5057	-16928
▁5693	-16929
▁80(5	-16930
▁trỉa	-16931
osamil	-16932
▁0(150	-16933
[...]
